{
  "version": "1.0",
  "truncation": null,
  "padding": null,
  "added_tokens": [
    {
      "id": 0,
      "content": "<|begin_of_text|>",
      "single_word": false,
      "lstrip": false,
      "rstrip": false,
      "normalized": false,
      "special": true
    },
    {
      "id": 1,
      "content": "<|end_of_text|>",
      "single_word": false,
      "lstrip": false,
      "rstrip": false,
      "normalized": false,
      "special": true
    },
    {
      "id": 2,
      "content": "<|pad|>",
      "single_word": false,
      "lstrip": false,
      "rstrip": false,
      "normalized": false,
      "special": true
    },
    {
      "id": 3,
      "content": "<|stop|>",
      "single_word": false,
      "lstrip": false,
      "rstrip": false,
      "normalized": false,
      "special": true
    }
  ],
  "normalizer": {
    "type": "NFC"
  },
  "pre_tokenizer": {
    "type": "Sequence",
    "pretokenizers": [
      {
        "type": "Digits",
        "individual_digits": true
      },
      {
        "type": "ByteLevel",
        "add_prefix_space": false,
        "trim_offsets": true,
        "use_regex": true
      }
    ]
  },
  "post_processor": {
    "type": "TemplateProcessing",
    "single": [
      {
        "Sequence": {
          "id": "A",
          "type_id": 0
        }
      }
    ],
    "pair": [
      {
        "Sequence": {
          "id": "A",
          "type_id": 0
        }
      },
      {
        "Sequence": {
          "id": "B",
          "type_id": 1
        }
      }
    ],
    "special_tokens": {}
  },
  "decoder": {
    "type": "ByteLevel",
    "add_prefix_space": true,
    "trim_offsets": true,
    "use_regex": true
  },
  "model": {
    "type": "BPE",
    "dropout": null,
    "unk_token": null,
    "continuing_subword_prefix": null,
    "end_of_word_suffix": null,
    "fuse_unk": false,
    "byte_fallback": false,
    "ignore_merges": false,
    "vocab": {
      "<|begin_of_text|>": 0,
      "<|end_of_text|>": 1,
      "<|pad|>": 2,
      "<|stop|>": 3,
      "!": 4,
      "\"": 5,
      "#": 6,
      "$": 7,
      "%": 8,
      "&": 9,
      "'": 10,
      "(": 11,
      ")": 12,
      "*": 13,
      "+": 14,
      ",": 15,
      "-": 16,
      ".": 17,
      "/": 18,
      "0": 19,
      "1": 20,
      "2": 21,
      "3": 22,
      "4": 23,
      "5": 24,
      "6": 25,
      "7": 26,
      "8": 27,
      "9": 28,
      ":": 29,
      ";": 30,
      "<": 31,
      "=": 32,
      ">": 33,
      "?": 34,
      "@": 35,
      "A": 36,
      "B": 37,
      "C": 38,
      "D": 39,
      "E": 40,
      "F": 41,
      "G": 42,
      "H": 43,
      "I": 44,
      "J": 45,
      "K": 46,
      "L": 47,
      "M": 48,
      "N": 49,
      "O": 50,
      "P": 51,
      "Q": 52,
      "R": 53,
      "S": 54,
      "T": 55,
      "U": 56,
      "V": 57,
      "W": 58,
      "X": 59,
      "Y": 60,
      "Z": 61,
      "[": 62,
      "\\": 63,
      "]": 64,
      "^": 65,
      "_": 66,
      "`": 67,
      "a": 68,
      "b": 69,
      "c": 70,
      "d": 71,
      "e": 72,
      "f": 73,
      "g": 74,
      "h": 75,
      "i": 76,
      "j": 77,
      "k": 78,
      "l": 79,
      "m": 80,
      "n": 81,
      "o": 82,
      "p": 83,
      "q": 84,
      "r": 85,
      "s": 86,
      "t": 87,
      "u": 88,
      "v": 89,
      "w": 90,
      "x": 91,
      "y": 92,
      "z": 93,
      "{": 94,
      "|": 95,
      "}": 96,
      "~": 97,
      "¡": 98,
      "¢": 99,
      "£": 100,
      "¤": 101,
      "¥": 102,
      "¦": 103,
      "§": 104,
      "¨": 105,
      "©": 106,
      "ª": 107,
      "«": 108,
      "¬": 109,
      "®": 110,
      "¯": 111,
      "°": 112,
      "±": 113,
      "²": 114,
      "³": 115,
      "´": 116,
      "µ": 117,
      "¶": 118,
      "·": 119,
      "¸": 120,
      "¹": 121,
      "º": 122,
      "»": 123,
      "¼": 124,
      "½": 125,
      "¾": 126,
      "¿": 127,
      "À": 128,
      "Á": 129,
      "Â": 130,
      "Ã": 131,
      "Ä": 132,
      "Å": 133,
      "Æ": 134,
      "Ç": 135,
      "È": 136,
      "É": 137,
      "Ê": 138,
      "Ë": 139,
      "Ì": 140,
      "Í": 141,
      "Î": 142,
      "Ï": 143,
      "Ð": 144,
      "Ñ": 145,
      "Ò": 146,
      "Ó": 147,
      "Ô": 148,
      "Õ": 149,
      "Ö": 150,
      "×": 151,
      "Ø": 152,
      "Ù": 153,
      "Ú": 154,
      "Û": 155,
      "Ü": 156,
      "Ý": 157,
      "Þ": 158,
      "ß": 159,
      "à": 160,
      "á": 161,
      "â": 162,
      "ã": 163,
      "ä": 164,
      "å": 165,
      "æ": 166,
      "ç": 167,
      "è": 168,
      "é": 169,
      "ê": 170,
      "ë": 171,
      "ì": 172,
      "í": 173,
      "î": 174,
      "ï": 175,
      "ð": 176,
      "ñ": 177,
      "ò": 178,
      "ó": 179,
      "ô": 180,
      "õ": 181,
      "ö": 182,
      "÷": 183,
      "ø": 184,
      "ù": 185,
      "ú": 186,
      "û": 187,
      "ü": 188,
      "ý": 189,
      "þ": 190,
      "ÿ": 191,
      "Ā": 192,
      "ā": 193,
      "Ă": 194,
      "ă": 195,
      "Ą": 196,
      "ą": 197,
      "Ć": 198,
      "ć": 199,
      "Ĉ": 200,
      "ĉ": 201,
      "Ċ": 202,
      "ċ": 203,
      "Č": 204,
      "č": 205,
      "Ď": 206,
      "ď": 207,
      "Đ": 208,
      "đ": 209,
      "Ē": 210,
      "ē": 211,
      "Ĕ": 212,
      "ĕ": 213,
      "Ė": 214,
      "ė": 215,
      "Ę": 216,
      "ę": 217,
      "Ě": 218,
      "ě": 219,
      "Ĝ": 220,
      "ĝ": 221,
      "Ğ": 222,
      "ğ": 223,
      "Ġ": 224,
      "ġ": 225,
      "Ģ": 226,
      "ģ": 227,
      "Ĥ": 228,
      "ĥ": 229,
      "Ħ": 230,
      "ħ": 231,
      "Ĩ": 232,
      "ĩ": 233,
      "Ī": 234,
      "ī": 235,
      "Ĭ": 236,
      "ĭ": 237,
      "Į": 238,
      "į": 239,
      "İ": 240,
      "ı": 241,
      "Ĳ": 242,
      "ĳ": 243,
      "Ĵ": 244,
      "ĵ": 245,
      "Ķ": 246,
      "ķ": 247,
      "ĸ": 248,
      "Ĺ": 249,
      "ĺ": 250,
      "Ļ": 251,
      "ļ": 252,
      "Ľ": 253,
      "ľ": 254,
      "Ŀ": 255,
      "ŀ": 256,
      "Ł": 257,
      "ł": 258,
      "Ń": 259,
      "ĠĠ": 260,
      "ĠĠĠĠ": 261,
      "čĊ": 262,
      "Ġd": 263,
      "ĠĠĠ": 264,
      "se": 265,
      "es": 266,
      "ĠĠĠĠĠĠĠĠ": 267,
      "Ġa": 268,
      "er": 269,
      "in": 270,
      "or": 271,
      "en": 272,
      "on": 273,
      "Ġc": 274,
      "Ġp": 275,
      "ar": 276,
      "re": 277,
      "Ġe": 278,
      "Ġt": 279,
      "Ġde": 280,
      "os": 281,
      "as": 282,
      "ĠĠĠĠĠĠĠ": 283,
      "an": 284,
      "at": 285,
      "al": 286,
      "is": 287,
      "ad": 288,
      "Ġn": 289,
      "Ġm": 290,
      "Ġse": 291,
      "Ġf": 292,
      "am": 293,
      "te": 294,
      "om": 295,
      "ic": 296,
      "Ġs": 297,
      "Ġo": 298,
      "le": 299,
      "qu": 300,
      "it": 301,
      "Ġ=": 302,
      "id": 303,
      "lf": 304,
      "ro": 305,
      "ent": 306,
      "im": 307,
      "um": 308,
      "he": 309,
      "ur": 310,
      "de": 311,
      "ion": 312,
      "ĠĠĠĠĠĠĠĠĠĠĠ": 313,
      "et": 314,
      "Ġ'": 315,
      "Ġre": 316,
      "tr": 317,
      "Ġin": 318,
      "un": 319,
      "ia": 320,
      "Ġqu": 321,
      "il": 322,
      "el": 323,
      "ac": 324,
      "est": 325,
      "Ġv": 326,
      "Ġself": 327,
      "ut": 328,
      "Ġb": 329,
      "ol": 330,
      "Ã£": 331,
      "Ġ\"": 332,
      "ul": 333,
      "Ġ(": 334,
      "Ġcom": 335,
      "Ġl": 336,
      "Ã£o": 337,
      "if": 338,
      "ra": 339,
      "ĠA": 340,
      "em": 341,
      "Ã§": 342,
      "do": 343,
      "st": 344,
      "Ġdo": 345,
      "--": 346,
      "ĠC": 347,
      "Ġque": 348,
      "ec": 349,
      "):": 350,
      "ĠS": 351,
      "ĠĠĠĠĠĠĠĠĠĠĠĠĠĠĠĠ": 352,
      "ing": 353,
      "Ġum": 354,
      "',": 355,
      "Ã©": 356,
      "ig": 357,
      "ed": 358,
      "Ġcon": 359,
      "Ġno": 360,
      "Ġem": 361,
      "Ġthe": 362,
      "ĠP": 363,
      "iv": 364,
      "##": 365,
      "Ġda": 366,
      "Ġpar": 367,
      "ist": 368,
      "ce": 369,
      "Ġg": 370,
      "ir": 371,
      "res": 372,
      "ag": 373,
      "ĠT": 374,
      "od": 375,
      "self": 376,
      "ser": 377,
      "ort": 378,
      "lo": 379,
      "ĠM": 380,
      "ame": 381,
      "ĠE": 382,
      "us": 383,
      "ri": 384,
      "Ġan": 385,
      "ue": 386,
      "to": 387,
      "Ġfor": 388,
      "ĠN": 389,
      "Ġw": 390,
      "Ġ#": 391,
      "ab": 392,
      "Ã¡": 393,
      "ao": 394,
      "Ġh": 395,
      "ÃŃ": 396,
      "Ġas": 397,
      "ap": 398,
      "ter": 399,
      "ate": 400,
      "tion": 401,
      "),": 402,
      "\"\"": 403,
      "ado": 404,
      "Ġdef": 405,
      "Ġif": 406,
      "Ã§Ã£o": 407,
      "ĠF": 408,
      "up": 409,
      "Ġex": 410,
      "iz": 411,
      "ode": 412,
      "io": 413,
      "ĠĠĠĠĠĠĠĠĠĠĠĠĠĠĠ": 414,
      "tur": 415,
      "ente": 416,
      "()": 417,
      "oc": 418,
      "ĠD": 419,
      "pe": 420,
      "ĠB": 421,
      "ou": 422,
      "port": 423,
      "ĠR": 424,
      "con": 425,
      "ĠL": 426,
      "ess": 427,
      "av": 428,
      "ĠI": 429,
      "__": 430,
      "Ġto": 431,
      "Ġis": 432,
      "ais": 433,
      "ch": 434,
      "':": 435,
      "ass": 436,
      "Ġpro": 437,
      "ĠO": 438,
      "turn": 439,
      "Ġpara": 440,
      "('": 441,
      "op": 442,
      "----": 443,
      "pl": 444,
      "ers": 445,
      "Ġuma": 446,
      "one": 447,
      "Ġ[": 448,
      "Ġ-": 449,
      "Ġreturn": 450,
      "ib": 451,
      "ho": 452,
      "ade": 453,
      "ada": 454,
      "ta": 455,
      "ran": 456,
      "cl": 457,
      "Ġim": 458,
      "ĠG": 459,
      "ile": 460,
      "end": 461,
      "Ġof": 462,
      "Ġos": 463,
      "Ġes": 464,
      "name": 465,
      "Ġsu": 466,
      "==": 467,
      "rom": 468,
      "par": 469,
      "ult": 470,
      "Ã³": 471,
      "ex": 472,
      "get": 473,
      "ation": 474,
      "Ġal": 475,
      "')": 476,
      "ĠčĊ": 477,
      "Ġest": 478,
      "\",": 479,
      "####": 480,
      "Ġpor": 481,
      "ob": 482,
      "ip": 483,
      "ype": 484,
      "ica": 485,
      "Ġna": 486,
      "ata": 487,
      "og": 488,
      "sert": 489,
      "ot": 490,
      "ma": 491,
      "and": 492,
      "ke": 493,
      "Ġpr": 494,
      "Ġj": 495,
      "ver": 496,
      "Ġ\"\"\"": 497,
      "..": 498,
      "ha": 499,
      "ect": 500,
      "Ġr": 501,
      "ando": 502,
      "co": 503,
      "ime": 504,
      "']": 505,
      "ens": 506,
      "int": 507,
      "orm": 508,
      "ub": 509,
      "Ġel": 510,
      "._": 511,
      "Ġres": 512,
      "ath": 513,
      "Ġth": 514,
      "ant": 515,
      "str": 516,
      "Ġnot": 517,
      "Ġor": 518,
      "Ġand": 519,
      "))": 520,
      "ĠĠĠĠĠ": 521,
      "ct": 522,
      "idade": 523,
      "th": 524,
      "ĠÃ©": 525,
      "ĠV": 526,
      "age": 527,
      "oi": 528,
      "ial": 529,
      "per": 530,
      "ĠJ": 531,
      "Ãª": 532,
      "Ġcomo": 533,
      "rue": 534,
      "iel": 535,
      "aÃ§Ã£o": 536,
      "ase": 537,
      "Ġu": 538,
      "tem": 539,
      "ento": 540,
      "val": 541,
      "['": 542,
      "Ġou": 543,
      "ččĊ": 544,
      "ror": 545,
      "Ġar": 546,
      "Ãµ": 547,
      "ĠH": 548,
      "Ġap": 549,
      "Ġimport": 550,
      "ield": 551,
      "ith": 552,
      "Ãµes": 553,
      "ve": 554,
      "ados": 555,
      "Ġ%": 556,
      "ai": 557,
      "Ġ{": 558,
      "com": 559,
      "Ġat": 560,
      "Ġen": 561,
      "ĠU": 562,
      "Ġ+": 563,
      "set": 564,
      "ang": 565,
      "Ġdes": 566,
      "po": 567,
      "mo": 568,
      "sen": 569,
      "Ġdos": 570,
      "ito": 571,
      "arg": 572,
      "assert": 573,
      "all": 574,
      "ay": 575,
      "(\"": 576,
      "Ġpel": 577,
      "und": 578,
      "ĠĠĠĠĠĠĠĠĠĠĠĠĠĠĠĠĠĠĠ": 579,
      "Ġcl": 580,
      "def": 581,
      "pt": 582,
      "ted": 583,
      "ack": 584,
      "Ġfoi": 585,
      "ck": 586,
      "Ġser": 587,
      "ire": 588,
      "Ġmais": 589,
      "pro": 590,
      "ido": 591,
      "ico": 592,
      "ine": 593,
      "ject": 594,
      "nc": 595,
      "so": 596,
      "ht": 597,
      ").": 598,
      "Ġent": 599,
      "ule": 600,
      "ses": 601,
      "ug": 602,
      "put": 603,
      "::": 604,
      "from": 605,
      "],": 606,
      "xt": 607,
      "ĠNone": 608,
      "ost": 609,
      "ption": 610,
      "ord": 611,
      "pre": 612,
      "Ġtem": 613,
      "key": 614,
      "Ġpre": 615,
      "Ġ_": 616,
      "ction": 617,
      "Ġtest": 618,
      "type": 619,
      "Ġval": 620,
      "--------": 621,
      "ĠÃ": 622,
      "Ġst": 623,
      "ira": 624,
      "iro": 625,
      "**": 626,
      "Ġper": 627,
      "enc": 628,
      "ĠW": 629,
      "pec": 630,
      "Ġ|": 631,
      "ida": 632,
      "Ġ==": 633,
      "Ġbe": 634,
      "ias": 635,
      "//": 636,
      "ew": 637,
      "able": 638,
      "path": 639,
      "ore": 640,
      "que": 641,
      "Ġao": 642,
      "ores": 643,
      "ud": 644,
      "====": 645,
      "form": 646,
      "Ġdis": 647,
      "Ġtr": 648,
      "odule": 649,
      "amb": 650,
      "ĉĉ": 651,
      "ind": 652,
      "ment": 653,
      "gu": 654,
      "Ġon": 655,
      "Ã§Ãµes": 656,
      "Ġob": 657,
      "Ġ:": 658,
      "odel": 659,
      "\")": 660,
      "ix": 661,
      "qual": 662,
      "add": 663,
      "ns": 664,
      "########": 665,
      "col": 666,
      "alse": 667,
      "art": 668,
      "ras": 669,
      "Ġer": 670,
      "Ġnao": 671,
      "pon": 672,
      "Ġch": 673,
      "text": 674,
      "Ġac": 675,
      "class": 676,
      "Ġter": 677,
      "mente": 678,
      "Ġme": 679,
      "ER": 680,
      "True": 681,
      "Ġsua": 682,
      "our": 683,
      "ance": 684,
      "ante": 685,
      "eg": 686,
      "ple": 687,
      "test": 688,
      "fer": 689,
      "Er": 690,
      "unt": 691,
      "Ãº": 692,
      "trib": 693,
      "Ã©m": 694,
      "ace": 695,
      "Ġle": 696,
      "Ġ||": 697,
      "ress": 698,
      "cess": 699,
      "az": 700,
      "file": 701,
      "='": 702,
      "âĢ": 703,
      "ure": 704,
      "ca": 705,
      "Ġwith": 706,
      "ber": 707,
      "Ġfil": 708,
      "Error": 709,
      "Ġele": 710,
      "ault": 711,
      "Ġmu": 712,
      "bo": 713,
      "Ġad": 714,
      "ice": 715,
      "IN": 716,
      "ign": 717,
      "ute": 718,
      "oss": 719,
      "ize": 720,
      "fo": 721,
      "Ġdas": 722,
      "])": 723,
      "In": 724,
      "amente": 725,
      "du": 726,
      "no": 727,
      "Ġam": 728,
      "ict": 729,
      "gr": 730,
      "fig": 731,
      "ios": 732,
      "cre": 733,
      "data": 734,
      "pr": 735,
      "app": 736,
      "Ġseu": 737,
      "adas": 738,
      "acao": 739,
      "ov": 740,
      "Equal": 741,
      "ĠĠĠĠĠĠĠĠĠĠĠĠĠĠĠĠĠĠĠĠĠĠĠĠĠĠĠĠĠĠĠĠ": 742,
      "Ġcont": 743,
      "args": 744,
      "eth": 745,
      "ual": 746,
      "Ġname": 747,
      "ive": 748,
      "Ġy": 749,
      "rio": 750,
      "min": 751,
      "Ġra": 752,
      "Ġelse": 753,
      "Ġit": 754,
      "ora": 755,
      "ient": 756,
      "out": 757,
      "\":": 758,
      "pos": 759,
      "param": 760,
      "ON": 761,
      "ista": 762,
      "=\"": 763,
      "tra": 764,
      "ys": 765,
      "Ġout": 766,
      "AR": 767,
      "ĠIn": 768,
      "ast": 769,
      "ext": 770,
      "Ġstr": 771,
      "ard": 772,
      "ill": 773,
      "atch": 774,
      "Ġpass": 775,
      "Ġun": 776,
      "ES": 777,
      "vel": 778,
      "url": 779,
      "ge": 780,
      "aria": 781,
      "heck": 782,
      "nt": 783,
      "sc": 784,
      "Ġx": 785,
      "ncia": 786,
      "tern": 787,
      "quest": 788,
      "ava": 789,
      "ise": 790,
      "ont": 791,
      "ly": 792,
      "of": 793,
      "Ġmas": 794,
      "ense": 795,
      "ĠThe": 796,
      "ight": 797,
      "assertEqual": 798,
      "ethod": 799,
      "ez": 800,
      "ite": 801,
      "ĠK": 802,
      "ific": 803,
      "ies": 804,
      "ele": 805,
      "Ġset": 806,
      "her": 807,
      "act": 808,
      "ork": 809,
      "Ġtamb": 810,
      "ity": 811,
      "\"\"\"": 812,
      "None": 813,
      "ersion": 814,
      "inha": 815,
      "Ġ*": 816,
      "Ġfun": 817,
      "Ġco": 818,
      "Ġpart": 819,
      "ss": 820,
      "ock": 821,
      "ust": 822,
      "aram": 823,
      "module": 824,
      "iss": 825,
      "import": 826,
      "anto": 827,
      "ide": 828,
      "Ġro": 829,
      "Ġreg": 830,
      "Ġsem": 831,
      "Ġma": 832,
      "Ġthat": 833,
      "ĠÃł": 834,
      "Ġdata": 835,
      "ument": 836,
      "list": 837,
      "tp": 838,
      "Ġcol": 839,
      "Ġget": 840,
      "ional": 841,
      "ild": 842,
      "ator": 843,
      "...": 844,
      "ated": 845,
      "Ġnos": 846,
      "Ġcor": 847,
      "Ġnum": 848,
      "lic": 849,
      "ĠâĢ": 850,
      "amento": 851,
      "Ġthis": 852,
      "AT": 853,
      "Ġ__": 854,
      "Ã§a": 855,
      "ina": 856,
      "ano": 857,
      "Ġ`": 858,
      "Ġi": 859,
      "stance": 860,
      "rit": 861,
      "Ã¢": 862,
      "ades": 863,
      "roup": 864,
      "Ġass": 865,
      "py": 866,
      "value": 867,
      "util": 868,
      "ria": 869,
      "Ġsob": 870,
      "ĠDe": 871,
      "Ġassert": 872,
      "endo": 873,
      "ĠnÃ£o": 874,
      "low": 875,
      "ener": 876,
      "log": 877,
      "sp": 878,
      "Ġ('": 879,
      "Ġ<": 880,
      "ok": 881,
      "IT": 882,
      "OR": 883,
      "Ġvalue": 884,
      "Ġk": 885,
      "fil": 886,
      "vent": 887,
      "Ġab": 888,
      "Ġfrom": 889,
      "Ġresult": 890,
      "field": 891,
      "Ġus": 892,
      "ulo": 893,
      "Ġpl": 894,
      "EN": 895,
      "ory": 896,
      "ome": 897,
      "cur": 898,
      "ary": 899,
      "ty": 900,
      "Ġ>": 901,
      "date": 902,
      "Ġsub": 903,
      "init": 904,
      "db": 905,
      "Ġpela": 906,
      "ail": 907,
      "imento": 908,
      "ĠAl": 909,
      "bal": 910,
      "Ġmes": 911,
      "Ġentre": 912,
      "cri": 913,
      "fe": 914,
      "hor": 915,
      "Ġpelo": 916,
      "ĠQ": 917,
      "ador": 918,
      "ĠRe": 919,
      "Ġuse": 920,
      "ave": 921,
      "ĠUn": 922,
      "der": 923,
      "inal": 924,
      "indo": 925,
      "model": 926,
      "ĠĠĠĠĠĠĠĠĠĠĠĠĠĠĠĠĠĠĠĠĠĠĠ": 927,
      "vol": 928,
      "are": 929,
      "ĠTrue": 930,
      "cept": 931,
      "ana": 932,
      "Ġfile": 933,
      "Ġtra": 934,
      "ocal": 935,
      "Ġwh": 936,
      "user": 937,
      "icas": 938,
      "undo": 939,
      "Ġsup": 940,
      "Ġcan": 941,
      "Ġform": 942,
      "Ġver": 943,
      "Ġarg": 944,
      "Ġpode": 945,
      "ara": 946,
      "ong": 947,
      "dex": 948,
      "Ġvo": 949,
      "Ġ)": 950,
      "ja": 951,
      "ĠĠĠĠĠĠĠĠĠ": 952,
      "orn": 953,
      "Ġprime": 954,
      "'),": 955,
      "la": 956,
      "Ġby": 957,
      "dir": 958,
      "ĠEst": 959,
      "ues": 960,
      "jo": 961,
      "idos": 962,
      "icos": 963,
      "read": 964,
      "has": 965,
      "ponse": 966,
      "Ġnov": 967,
      "ĠĠĠĠĠĠĠĠĠĠĠĠĠĠĠĠĠĠ": 968,
      "Ãªncia": 969,
      "Con": 970,
      "me": 971,
      "ml": 972,
      "Ġmar": 973,
      "ff": 974,
      "ĠÃ¡": 975,
      "Ġtod": 976,
      "sent": 977,
      "Ã©c": 978,
      "========": 979,
      "Ġinter": 980,
      "vi": 981,
      "len": 982,
      "sh": 983,
      "idades": 984,
      "Ġeu": 985,
      "ĠĠĠĠĠĠĠĠĠĠĠĠ": 986,
      "ativ": 987,
      "ui": 988,
      "ĠtambÃ©m": 989,
      "wn": 990,
      "ĠFalse": 991,
      "les": 992,
      "Ġalg": 993,
      "rans": 994,
      "Ġ@": 995,
      "Re": 996,
      "stat": 997,
      "----------------": 998,
      "append": 999,
      "vice": 1000,
      "anc": 1001,
      "ĠCon": 1002,
      "ray": 1003,
      "nd": 1004,
      "icense": 1005,
      "Ġhe": 1006,
      "esso": 1007,
      "inc": 1008,
      "ie": 1009,
      "AN": 1010,
      "ĠCom": 1011,
      "ato": 1012,
      "ry": 1013,
      "__(": 1014,
      "Ġ{'": 1015,
      "son": 1016,
      "for": 1017,
      "Ġlist": 1018,
      "Ġfaz": 1019,
      "ger": 1020,
      "Ġlog": 1021,
      "Ġ}": 1022,
      "Ġcar": 1023,
      "Ã´": 1024,
      "Ġdire": 1025,
      "ied": 1026,
      "ros": 1027,
      "ĠEm": 1028,
      "ero": 1029,
      "opy": 1030,
      "work": 1031,
      "man": 1032,
      "uld": 1033,
      "abel": 1034,
      "Ġrel": 1035,
      "Ġraise": 1036,
      "ings": 1037,
      "aÃ§Ãµes": 1038,
      "Ġsobre": 1039,
      "load": 1040,
      "ST": 1041,
      "Ġare": 1042,
      "des": 1043,
      "antes": 1044,
      "AL": 1045,
      "object": 1046,
      "([": 1047,
      "Ġcas": 1048,
      "reg": 1049,
      "################": 1050,
      "stru": 1051,
      "Ġaut": 1052,
      "ino": 1053,
      "Ġesp": 1054,
      "Ġtype": 1055,
      "Ġwe": 1056,
      "ble": 1057,
      "ames": 1058,
      "Ġera": 1059,
      "Ġns": 1060,
      "Ġag": 1061,
      "ĠSe": 1062,
      "False": 1063,
      "://": 1064,
      "har": 1065,
      "da": 1066,
      "Test": 1067,
      "ww": 1068,
      "'):": 1069,
      "Field": 1070,
      "ura": 1071,
      "ans": 1072,
      "agem": 1073,
      "essage": 1074,
      "Ġpo": 1075,
      "ource": 1076,
      "hos": 1077,
      "ert": 1078,
      "Ġid": 1079,
      "Ġkey": 1080,
      "Ġlen": 1081,
      "mand": 1082,
      "sg": 1083,
      "ĠX": 1084,
      "net": 1085,
      "Ġte": 1086,
      "dict": 1087,
      "ĠTh": 1088,
      "Ġanos": 1089,
      "tes": 1090,
      "line": 1091,
      "dit": 1092,
      "Ġcur": 1093,
      "info": 1094,
      "ph": 1095,
      "rite": 1096,
      "Ġint": 1097,
      "count": 1098,
      "cal": 1099,
      "ango": 1100,
      "ĠsÃ£o": 1101,
      "method": 1102,
      "ular": 1103,
      "ape": 1104,
      "fl": 1105,
      "ask": 1106,
      "ception": 1107,
      "SE": 1108,
      "Ġoutr": 1109,
      "ane": 1110,
      "ĠLicense": 1111,
      "ll": 1112,
      "oder": 1113,
      "ÃŃt": 1114,
      "ĠBras": 1115,
      "Ġind": 1116,
      "Ġgr": 1117,
      "code": 1118,
      "ĠAr": 1119,
      "ude": 1120,
      "entes": 1121,
      "cor": 1122,
      "ache": 1123,
      "orte": 1124,
      "():": 1125,
      "bro": 1126,
      "jango": 1127,
      "RE": 1128,
      "lin": 1129,
      "''": 1130,
      "udo": 1131,
      "Em": 1132,
      "Ġvez": 1133,
      "itos": 1134,
      "ima": 1135,
      "Ġnas": 1136,
      "Ġfe": 1137,
      "Ġcons": 1138,
      "lock": 1139,
      "Ġpesso": 1140,
      "De": 1141,
      "Ġcomp": 1142,
      "uc": 1143,
      "cont": 1144,
      "unic": 1145,
      "hec": 1146,
      "Ġprint": 1147,
      "ach": 1148,
      "Ãªs": 1149,
      "ne": 1150,
      "ivers": 1151,
      "amos": 1152,
      "Pro": 1153,
      "por": 1154,
      "Ġdefault": 1155,
      "\".": 1156,
      "Ġsho": 1157,
      "ater": 1158,
      "ence": 1159,
      "format": 1160,
      "Ġtry": 1161,
      "Ġseus": 1162,
      "back": 1163,
      "Ġexcept": 1164,
      "Ġop": 1165,
      "tain": 1166,
      "LE": 1167,
      "Ġdia": 1168,
      "config": 1169,
      "Ġfunction": 1170,
      "Ġconst": 1171,
      "Ġmai": 1172,
      "St": 1173,
      "instance": 1174,
      "iu": 1175,
      "time": 1176,
      "item": 1177,
      "Ġposs": 1178,
      "ree": 1179,
      "Com": 1180,
      "Ġseg": 1181,
      "Ġmuito": 1182,
      "over": 1183,
      "aut": 1184,
      "Ġtrans": 1185,
      "Ġlocal": 1186,
      "[\"": 1187,
      "ain": 1188,
      "inda": 1189,
      "Ġreal": 1190,
      "ider": 1191,
      "Ġclass": 1192,
      "Ġpol": 1193,
      "Ġcam": 1194,
      "Ġgran": 1195,
      "Ġpos": 1196,
      "Ex": 1197,
      "IC": 1198,
      "rent": 1199,
      "Ġcr": 1200,
      "Ġnew": 1201,
      "quer": 1202,
      "Ġuser": 1203,
      "ita": 1204,
      "Ġport": 1205,
      "default": 1206,
      "entos": 1207,
      "dd": 1208,
      ".__": 1209,
      "Ġquando": 1210,
      "Ġqual": 1211,
      "ak": 1212,
      "enas": 1213,
      "aix": 1214,
      "Ã¡ri": 1215,
      "bu": 1216,
      "iÃ§Ã£o": 1217,
      "plic": 1218,
      "Ġso": 1219,
      "Type": 1220,
      "Ġnp": 1221,
      "Ġmesmo": 1222,
      "pes": 1223,
      "alue": 1224,
      "\"]": 1225,
      "ID": 1226,
      "cis": 1227,
      "ions": 1228,
      "thon": 1229,
      "bol": 1230,
      "eta": 1231,
      "ÃŃc": 1232,
      "num": 1233,
      "size": 1234,
      "Ġpop": 1235,
      "ĠâĢĶ": 1236,
      "Ġfield": 1237,
      "word": 1238,
      "Ġprov": 1239,
      "Ġsen": 1240,
      "ĠNo": 1241,
      "ublic": 1242,
      "Ġexp": 1243,
      "nec": 1244,
      "Ã¡rio": 1245,
      "sub": 1246,
      "quire": 1247,
      "AS": 1248,
      "group": 1249,
      "Ġparam": 1250,
      "ader": 1251,
      "be": 1252,
      "Ġcap": 1253,
      "Ġwill": 1254,
      "Ġvoce": 1255,
      "ull": 1256,
      "Âł": 1257,
      "Ġcls": 1258,
      "mp": 1259,
      "Ġmodule": 1260,
      "fields": 1261,
      "ĠMar": 1262,
      "wargs": 1263,
      "raf": 1264,
      "gram": 1265,
      "part": 1266,
      "Ġtime": 1267,
      "Ġvol": 1268,
      "string": 1269,
      "acional": 1270,
      "http": 1271,
      "Ġobject": 1272,
      "cription": 1273,
      "bl": 1274,
      "Ġmodel": 1275,
      "Ġelif": 1276,
      "ĠEx": 1277,
      "sed": 1278,
      "Ġbo": 1279,
      "UT": 1280,
      "Ġcri": 1281,
      "Ġbase": 1282,
      "comp": 1283,
      "models": 1284,
      "Ġcre": 1285,
      "'}": 1286,
      "Ġdif": 1287,
      "Ġmin": 1288,
      "oria": 1289,
      "adores": 1290,
      "Ġ[]": 1291,
      "ivo": 1292,
      "aco": 1293,
      "by": 1294,
      "Ġ**": 1295,
      "arn": 1296,
      "arget": 1297,
      "idas": 1298,
      "update": 1299,
      "ĠBrasil": 1300,
      "ĠY": 1301,
      "ich": 1302,
      "join": 1303,
      "ĠCh": 1304,
      "ick": 1305,
      "ua": 1306,
      "Ġdest": 1307,
      "ations": 1308,
      "eral": 1309,
      "Ġincl": 1310,
      "serv": 1311,
      "fun": 1312,
      "iÃ£o": 1313,
      "dis": 1314,
      "Ġlo": 1315,
      "max": 1316,
      "Ġrec": 1317,
      "ename": 1318,
      "dom": 1319,
      "Ġpath": 1320,
      "br": 1321,
      "ere": 1322,
      "ĠPa": 1323,
      "ates": 1324,
      "tribute": 1325,
      "atur": 1326,
      "iver": 1327,
      "Ġfal": 1328,
      "Ġcidade": 1329,
      "Ġmil": 1330,
      "'],": 1331,
      "())": 1332,
      "we": 1333,
      "Ġ/": 1334,
      "Ġprinc": 1335,
      "ĠAn": 1336,
      "vo": 1337,
      "attr": 1338,
      "RO": 1339,
      "Ġ[],": 1340,
      "FA": 1341,
      "Ġjog": 1342,
      "option": 1343,
      "istas": 1344,
      "Ġsegu": 1345,
      "rc": 1346,
      "DE": 1347,
      "Ġonde": 1348,
      "ann": 1349,
      "gth": 1350,
      "ther": 1351,
      "iros": 1352,
      "Ġoption": 1353,
      "ĠThis": 1354,
      "pois": 1355,
      "Ġhas": 1356,
      "Ġsim": 1357,
      "lib": 1358,
      "Ġsuper": 1359,
      "Ġforam": 1360,
      "iam": 1361,
      "vir": 1362,
      "uns": 1363,
      "anÃ§": 1364,
      "Ġtrabal": 1365,
      "Ġall": 1366,
      "error": 1367,
      "ware": 1368,
      "Ġvida": 1369,
      "Ġfl": 1370,
      "****": 1371,
      "pend": 1372,
      "Ġquer": 1373,
      "ps": 1374,
      "Ġman": 1375,
      "inho": 1376,
      "ismo": 1377,
      "jet": 1378,
      "].": 1379,
      "Ġesc": 1380,
      "////": 1381,
      "istr": 1382,
      "ded": 1383,
      "Ġz": 1384,
      "Ġline": 1385,
      "state": 1386,
      "Ġspec": 1387,
      "ĠIf": 1388,
      "Ġche": 1389,
      "Ġesta": 1390,
      "Ġran": 1391,
      "Ġmet": 1392,
      "vis": 1393,
      "create": 1394,
      "start": 1395,
      "mon": 1396,
      "Ġ+=": 1397,
      "pected": 1398,
      "Ã³s": 1399,
      "igo": 1400,
      "Ġfr": 1401,
      "olog": 1402,
      "ax": 1403,
      "AM": 1404,
      "mem": 1405,
      "Ġ,": 1406,
      "version": 1407,
      "Ġ\\": 1408,
      "ET": 1409,
      "Ġ!": 1410,
      "Ġ.": 1411,
      "ĠĠĠĠĠĠ": 1412,
      "Ġ{}": 1413,
      "arch": 1414,
      "uer": 1415,
      "Ġaf": 1416,
      "ĠSt": 1417,
      "var": 1418,
      "Ġainda": 1419,
      "'s": 1420,
      "write": 1421,
      "ample": 1422,
      "ior": 1423,
      "Ġ##": 1424,
      "au": 1425,
      "Ġhist": 1426,
      "ible": 1427,
      "Ġversion": 1428,
      "index": 1429,
      "ender": 1430,
      "Ġsys": 1431,
      "Ã³ria": 1432,
      "md": 1433,
      "tal": 1434,
      "(),": 1435,
      "request": 1436,
      "Ġadd": 1437,
      "Ġrequest": 1438,
      "essa": 1439,
      "erc": 1440,
      "loat": 1441,
      "Ġ['": 1442,
      "valid": 1443,
      "imo": 1444,
      "org": 1445,
      "ĠJo": 1446,
      "lia": 1447,
      "etur": 1448,
      "Ġconfig": 1449,
      "ify": 1450,
      "host": 1451,
      "itar": 1452,
      "tura": 1453,
      "Ġne": 1454,
      "Ġtempo": 1455,
      "ier": 1456,
      "Ġtorn": 1457,
      "Ã§o": 1458,
      "with": 1459,
      "Ġsuas": 1460,
      "mar": 1461,
      "plo": 1462,
      "Ġmel": 1463,
      "Ġconhec": 1464,
      "ref": 1465,
      "va": 1466,
      "uÃŃ": 1467,
      "Ġpra": 1468,
      "Ġbem": 1469,
      ".\"\"\"": 1470,
      "ey": 1471,
      "ela": 1472,
      "Ġprincip": 1473,
      "iste": 1474,
      "check": 1475,
      "Ġpe": 1476,
      "Ġmen": 1477,
      "AC": 1478,
      "ĠPro": 1479,
      "Ġinst": 1480,
      "ian": 1481,
      "utils": 1482,
      "Ġnome": 1483,
      "quired": 1484,
      "Ġforma": 1485,
      "result": 1486,
      "mit": 1487,
      "Ġprodu": 1488,
      "run": 1489,
      "encia": 1490,
      "urante": 1491,
      "context": 1492,
      "Ġcontext": 1493,
      "ĠPort": 1494,
      "Ġrece": 1495,
      "Ġcheck": 1496,
      "met": 1497,
      "amp": 1498,
      "ell": 1499,
      "mos": 1500,
      "Ġ&": 1501,
      "ÃŃp": 1502,
      "ĠĠĠĠĠĠĠĠĠĠĠĠĠĠĠĠĠĠĠĠĠĠĠĠ": 1503,
      "uro": 1504,
      "Ġdesc": 1505,
      "Ġano": 1506,
      "Ġaos": 1507,
      "fr": 1508,
      "ctor": 1509,
      "imit": 1510,
      "Ġisso": 1511,
      "Name": 1512,
      "este": 1513,
      "plit": 1514,
      "Ġtodos": 1515,
      "ĠOs": 1516,
      "ices": 1517,
      "qui": 1518,
      "ION": 1519,
      "Get": 1520,
      "Ġela": 1521,
      "Ġshould": 1522,
      "array": 1523,
      "ages": 1524,
      "Ġparte": 1525,
      "Ã´n": 1526,
      "Ġcer": 1527,
      "tribut": 1528,
      "ece": 1529,
      "nection": 1530,
      "Ġatr": 1531,
      ">>": 1532,
      "'])": 1533,
      "Ġca": 1534,
      "che": 1535,
      "uz": 1536,
      "je": 1537,
      "Ġstring": 1538,
      "ical": 1539,
      "obj": 1540,
      "Ġsol": 1541,
      "ces": 1542,
      "Ġht": 1543,
      "Ġoutput": 1544,
      "base": 1545,
      "Ġhab": 1546,
      "ken": 1547,
      "Ġcontin": 1548,
      "Ġir": 1549,
      "Ġsa": 1550,
      "django": 1551,
      "Ġpy": 1552,
      "ĠPar": 1553,
      "ange": 1554,
      "go": 1555,
      "ĠSÃ£o": 1556,
      "ĠAs": 1557,
      "Ġol": 1558,
      "Ġoutros": 1559,
      "node": 1560,
      "not": 1561,
      "Ġsh": 1562,
      "return": 1563,
      "ĠatÃ©": 1564,
      "color": 1565,
      "Ġfic": 1566,
      "ound": 1567,
      "Ġmod": 1568,
      "ĠĠĠĠĠĠĠĠĠĠĠĠĠĠĠĠĠĠĠĠĠĠĠĠĠĠĠ": 1569,
      "ĠCar": 1570,
      "Ġbu": 1571,
      "params": 1572,
      "``": 1573,
      "iter": 1574,
      "IS": 1575,
      "ream": 1576,
      "ensor": 1577,
      "Ġgrande": 1578,
      "plate": 1579,
      "Ġpopul": 1580,
      "oft": 1581,
      "ste": 1582,
      "za": 1583,
      "irst": 1584,
      "Ġurl": 1585,
      "erson": 1586,
      "Set": 1587,
      "Ġorig": 1588,
      "Ġstat": 1589,
      "Ġerror": 1590,
      "ner": 1591,
      "'t": 1592,
      "eric": 1593,
      "itle": 1594,
      "parse": 1595,
      "anh": 1596,
      "Ġsendo": 1597,
      "ume": 1598,
      "led": 1599,
      "ags": 1600,
      "</": 1601,
      "ĠLe": 1602,
      "kwargs": 1603,
      "Ġpoder": 1604,
      "status": 1605,
      "miss": 1606,
      "ler": 1607,
      "rel": 1608,
      "Ġpa": 1609,
      "action": 1610,
      "izer": 1611,
      "Ġ!=": 1612,
      "Ġlin": 1613,
      "rafia": 1614,
      "UR": 1615,
      "mas": 1616,
      "Ġgra": 1617,
      "Ġpessoas": 1618,
      "esse": 1619,
      "ws": 1620,
      "cr": 1621,
      "Ġmethod": 1622,
      "loc": 1623,
      "entro": 1624,
      "fix": 1625,
      "IL": 1626,
      "api": 1627,
      "tings": 1628,
      "core": 1629,
      "Ġnode": 1630,
      "Ġexist": 1631,
      "Ġcham": 1632,
      "ake": 1633,
      "inter": 1634,
      "Ġdesen": 1635,
      "!!": 1636,
      "Ġho": 1637,
      "Ġinte": 1638,
      "ton": 1639,
      "client": 1640,
      "Ġvar": 1641,
      "uas": 1642,
      "right": 1643,
      "bin": 1644,
      "ÃŃn": 1645,
      "Ġespec": 1646,
      "ED": 1647,
      "Ġresponse": 1648,
      "Ġdiv": 1649,
      "Ã¡rios": 1650,
      "Add": 1651,
      "Ġprimeiro": 1652,
      "input": 1653,
      "Ġext": 1654,
      "Ġsent": 1655,
      "Ġdois": 1656,
      "Ġret": 1657,
      "Ġhave": 1658,
      "Ġfam": 1659,
      "network": 1660,
      "ĠQu": 1661,
      "json": 1662,
      "No": 1663,
      "At": 1664,
      "Ġapenas": 1665,
      "Ġmaior": 1666,
      "iais": 1667,
      "Ġdoc": 1668,
      "ĠAm": 1669,
      "Ġprocess": 1670,
      "ena": 1671,
      "itas": 1672,
      "Ġcal": 1673,
      "Ġmem": 1674,
      "Ġsab": 1675,
      "Ã¡t": 1676,
      "Ġfinal": 1677,
      "ature": 1678,
      "ENT": 1679,
      "play": 1680,
      "gua": 1681,
      "AD": 1682,
      "Ġmundo": 1683,
      "Ġyou": 1684,
      "Ġvis": 1685,
      "OS": 1686,
      "pres": 1687,
      "().": 1688,
      "tring": 1689,
      "Value": 1690,
      "Ġdepois": 1691,
      "Ġmed": 1692,
      "ts": 1693,
      "ique": 1694,
      "uid": 1695,
      "AB": 1696,
      "new": 1697,
      "UL": 1698,
      "Ġhom": 1699,
      "cao": 1700,
      "ĠPr": 1701,
      "Ġalgum": 1702,
      "ep": 1703,
      "Ġitem": 1704,
      "Id": 1705,
      "Ġconse": 1706,
      "Ġapre": 1707,
      "ĠZ": 1708,
      "ici": 1709,
      "call": 1710,
      "map": 1711,
      "Ġgover": 1712,
      "umn": 1713,
      "pol": 1714,
      "Ã³r": 1715,
      "ins": 1716,
      "ateg": 1717,
      "iva": 1718,
      "____": 1719,
      "Res": 1720,
      "red": 1721,
      "================": 1722,
      "ister": 1723,
      "Ã¢n": 1724,
      "Cl": 1725,
      "Ġtext": 1726,
      "old": 1727,
      "Ġev": 1728,
      "Ġprof": 1729,
      "Ġcall": 1730,
      "Ġprogram": 1731,
      "output": 1732,
      "uto": 1733,
      "ms": 1734,
      "rea": 1735,
      "ern": 1736,
      "ples": 1737,
      "try": 1738,
      "doc": 1739,
      "ende": 1740,
      "Ġ``": 1741,
      "ĠEle": 1742,
      "....": 1743,
      "Ġdev": 1744,
      "lp": 1745,
      "avam": 1746,
      "Ġargs": 1747,
      "ally": 1748,
      "www": 1749,
      "Ġassim": 1750,
      "Ġsoc": 1751,
      "Ġrepre": 1752,
      "view": 1753,
      "Ġcheg": 1754,
      "under": 1755,
      "Ġencon": 1756,
      "Ġsign": 1757,
      "ĠFran": 1758,
      "bug": 1759,
      "dade": 1760,
      "Ġutil": 1761,
      "ric": 1762,
      "Ġend": 1763,
      "Ġused": 1764,
      "lose": 1765,
      "ody": 1766,
      "itu": 1767,
      "pty": 1768,
      "ĠCl": 1769,
      "odo": 1770,
      "label": 1771,
      "lean": 1772,
      "Ġextern": 1773,
      "Ġfazer": 1774,
      "length": 1775,
      "perty": 1776,
      "Ġcada": 1777,
      "cer": 1778,
      "Ar": 1779,
      "oca": 1780,
      "Ġdat": 1781,
      "volv": 1782,
      "Ġ>>>": 1783,
      "spec": 1784,
      "Ġoper": 1785,
      "its": 1786,
      "oftware": 1787,
      "onte": 1788,
      "Ġdict": 1789,
      "ĠÃº": 1790,
      "unicÃŃp": 1791,
      "ym": 1792,
      "cent": 1793,
      "Ġdeix": 1794,
      "Ġescol": 1795,
      "msg": 1796,
      "rap": 1797,
      "Ã©r": 1798,
      "mod": 1799,
      "af": 1800,
      "Ġup": 1801,
      "Ġprimeira": 1802,
      "Ġmelhor": 1803,
      "Ġisinstance": 1804,
      "ÃŃs": 1805,
      "Ġinput": 1806,
      "anda": 1807,
      "List": 1808,
      "ares": 1809,
      "esta": 1810,
      "CT": 1811,
      "\"),": 1812,
      "Ġestr": 1813,
      "ments": 1814,
      "Ã©d": 1815,
      "inte": 1816,
      "ncias": 1817,
      "Ġcomple": 1818,
      "CO": 1819,
      "split": 1820,
      "ux": 1821,
      "Ġhttp": 1822,
      "Ġlib": 1823,
      "root": 1824,
      "response": 1825,
      "ĠAN": 1826,
      "Ġmax": 1827,
      "Ġpal": 1828,
      "Ġother": 1829,
      "Ġliv": 1830,
      "Ġant": 1831,
      "eter": 1832,
      "content": 1833,
      "iras": 1834,
      "ubl": 1835,
      "CH": 1836,
      "IM": 1837,
      "AP": 1838,
      "etime": 1839,
      "izaÃ§Ã£o": 1840,
      "Ġeste": 1841,
      "ĠĠĠĠĠĠĠĠĠĠĠĠĠĠ": 1842,
      "trans": 1843,
      "((": 1844,
      "ĠRio": 1845,
      "move": 1846,
      "Ġconstru": 1847,
      "Ġmat": 1848,
      "lete": 1849,
      "dat": 1850,
      "Ġunder": 1851,
      "'))": 1852,
      "filter": 1853,
      "Ġdurante": 1854,
      "Ġja": 1855,
      "'.": 1856,
      "Ġart": 1857,
      "Ġsao": 1858,
      "Ġsempre": 1859,
      "ition": 1860,
      "ital": 1861,
      "Ġany": 1862,
      "Ġdifer": 1863,
      "atal": 1864,
      "iga": 1865,
      "Ġvalues": 1866,
      "ci": 1867,
      "Ġdescription": 1868,
      "tou": 1869,
      "gan": 1870,
      "ĠPaulo": 1871,
      "html": 1872,
      "Ġtudo": 1873,
      "Ġrun": 1874,
      "eneral": 1875,
      "Ġstate": 1876,
      "shape": 1877,
      "rasile": 1878,
      "member": 1879,
      "ING": 1880,
      "ols": 1881,
      "Ġevent": 1882,
      "Un": 1883,
      "enh": 1884,
      "km": 1885,
      "oo": 1886,
      "ram": 1887,
      "Ġlong": 1888,
      "ified": 1889,
      "ĠTest": 1890,
      "place": 1891,
      "let": 1892,
      "Al": 1893,
      "ash": 1894,
      "AG": 1895,
      "anha": 1896,
      "eters": 1897,
      "acoes": 1898,
      "icial": 1899,
      "pa": 1900,
      "oding": 1901,
      "Ġbut": 1902,
      "Ġdel": 1903,
      "OT": 1904,
      "izado": 1905,
      "Ġwhich": 1906,
      "anos": 1907,
      "Ġinstance": 1908,
      "Ġcopy": 1909,
      "Â²": 1910,
      "Ob": 1911,
      "ĠAt": 1912,
      "Ġconv": 1913,
      "ula": 1914,
      "Ġstart": 1915,
      "point": 1916,
      "|-": 1917,
      "ariable": 1918,
      "lect": 1919,
      "ativa": 1920,
      "Ġconf": 1921,
      "cos": 1922,
      "EM": 1923,
      "Ġdom": 1924,
      "Ser": 1925,
      "Ġprop": 1926,
      "ale": 1927,
      "Ã©s": 1928,
      "ĠOr": 1929,
      "rem": 1930,
      "face": 1931,
      "Ġexpected": 1932,
      "acter": 1933,
      "itor": 1934,
      "sour": 1935,
      "Ġconsider": 1936,
      "eno": 1937,
      "IG": 1938,
      "ĉĉĉ": 1939,
      "Ġpou": 1940,
      "aneiro": 1941,
      "ĠCr": 1942,
      "--------------------------------": 1943,
      "Ġmeu": 1944,
      "message": 1945,
      "print": 1946,
      "ĠAle": 1947,
      "Ġgrup": 1948,
      "File": 1949,
      "Ġla": 1950,
      "isa": 1951,
      "ĠDeus": 1952,
      "ANT": 1953,
      "igaÃ§Ãµes": 1954,
      "ĠestÃ¡": 1955,
      "ormal": 1956,
      "Ġcode": 1957,
      "rol": 1958,
      "elo": 1959,
      "izada": 1960,
      "ager": 1961,
      "ĠĠĠĠĠĠĠĠĠĠĠĠĠ": 1962,
      "Ġtambem": 1963,
      "Ġpartic": 1964,
      "bar": 1965,
      "Ġate": 1966,
      "andler": 1967,
      "sho": 1968,
      "II": 1969,
      "Ġale": 1970,
      "rie": 1971,
      "'\\": 1972,
      "ops": 1973,
      "ffer": 1974,
      "Ġav": 1975,
      "tag": 1976,
      "inas": 1977,
      "Ġprincipal": 1978,
      "Ġhabit": 1979,
      "Ġ'''": 1980,
      "Ġdist": 1981,
      "Ġestava": 1982,
      "Ġvi": 1983,
      "Ġbrasile": 1984,
      "sess": 1985,
      "ario": 1986,
      "names": 1987,
      "Ġhav": 1988,
      "Ġsom": 1989,
      "Ġestado": 1990,
      "embro": 1991,
      "erg": 1992,
      "Ġsal": 1993,
      "Ġinv": 1994,
      "aders": 1995,
      "Ġrequired": 1996,
      "Ġenc": 1997,
      "Ġargument": 1998,
      "lt": 1999,
      "Ġmatch": 2000,
      "Ġwhen": 2001,
      "Ġhum": 2002,
      "types": 2003,
      "cul": 2004,
      "gl": 2005,
      "atro": 2006,
      "Ãªm": 2007,
      "pace": 2008,
      "################################": 2009,
      "pass": 2010,
      "DO": 2011,
      "ifica": 2012,
      "ologia": 2013,
      "Ġrange": 2014,
      "equal": 2015,
      "sys": 2016,
      "dic": 2017,
      "lobal": 2018,
      "ik": 2019,
      "yn": 2020,
      "Ġexternas": 2021,
      "Ġcontra": 2022,
      "top": 2023,
      "tribu": 2024,
      "En": 2025,
      "exp": 2026,
      "table": 2027,
      "Ãªncias": 2028,
      "Ġminha": 2029,
      "asse": 2030,
      "idth": 2031,
      "pack": 2032,
      "ĠAp": 2033,
      "values": 2034,
      "LO": 2035,
      "Ġmor": 2036,
      "To": 2037,
      "utebol": 2038,
      "Ġimp": 2039,
      "][": 2040,
      "Ġcommand": 2041,
      "Data": 2042,
      "Im": 2043,
      "anta": 2044,
      "ecess": 2045,
      "Ġone": 2046,
      "row": 2047,
      "Ġrefer": 2048,
      "Ch": 2049,
      "rop": 2050,
      "const": 2051,
      "ĠÃ¡rea": 2052,
      "Ġencontr": 2053,
      "LigaÃ§Ãµes": 2054,
      "HO": 2055,
      "ilidade": 2056,
      "ĠRetur": 2057,
      "rec": 2058,
      "Ġpes": 2059,
      "ĠâĢĵ": 2060,
      "ids": 2061,
      "acion": 2062,
      "my": 2063,
      "ÃŃvel": 2064,
      "ÃŃlia": 2065,
      "ĠCam": 2066,
      "ĠPor": 2067,
      "Ġprecis": 2068,
      "PE": 2069,
      "Ġfre": 2070,
      "Ġtinha": 2071,
      "Ġoc": 2072,
      "NU": 2073,
      "server": 2074,
      "Ġcurrent": 2075,
      "Ġvezes": 2076,
      "ĠprÃ³": 2077,
      "Ġtodo": 2078,
      "ank": 2079,
      "ĠEs": 2080,
      "Ġmessage": 2081,
      "objects": 2082,
      "anÃ§a": 2083,
      "Ġoutras": 2084,
      "gs": 2085,
      "Ġnumber": 2086,
      "vert": 2087,
      "ds": 2088,
      "Ġmsg": 2089,
      "ents": 2090,
      "idente": 2091,
      "Ġnecess": 2092,
      "process": 2093,
      "cript": 2094,
      ".,": 2095,
      "rag": 2096,
      "Ġmay": 2097,
      "use": 2098,
      "Ġpres": 2099,
      "cho": 2100,
      "Âº": 2101,
      "adata": 2102,
      "lay": 2103,
      "imentos": 2104,
      "ĠĠĠĠĠĠĠĠĠĠ": 2105,
      "Ġet": 2106,
      "link": 2107,
      "Ġlug": 2108,
      "Ġder": 2109,
      "ube": 2110,
      "options": 2111,
      "gre": 2112,
      "Ġbr": 2113,
      "gcolor": 2114,
      "Ġcontain": 2115,
      "ĠPortug": 2116,
      "Key": 2117,
      "raph": 2118,
      "Se": 2119,
      "mes": 2120,
      "Ġformat": 2121,
      "Ġfol": 2122,
      ".\"": 2123,
      "np": 2124,
      "ret": 2125,
      "unto": 2126,
      "ĠEn": 2127,
      "order": 2128,
      "cion": 2129,
      "ĠEsp": 2130,
      "Ġact": 2131,
      "quanto": 2132,
      "here": 2133,
      "veis": 2134,
      "Ġduas": 2135,
      "ĠpopulaÃ§Ã£o": 2136,
      "Ġonly": 2137,
      "agens": 2138,
      "Ġcin": 2139,
      "irect": 2140,
      "Ġfund": 2141,
      "cs": 2142,
      "Ġcomun": 2143,
      "ĠCol": 2144,
      "Ġhost": 2145,
      "ative": 2146,
      "Ġ->": 2147,
      "ait": 2148,
      "iven": 2149,
      "items": 2150,
      "block": 2151,
      "ivos": 2152,
      "ker": 2153,
      "cache": 2154,
      "Ġeles": 2155,
      "ĠNov": 2156,
      "ĠIm": 2157,
      "foo": 2158,
      "Ġpelos": 2159,
      "ft": 2160,
      "ging": 2161,
      "US": 2162,
      "isto": 2163,
      "auth": 2164,
      "Ġnoss": 2165,
      "command": 2166,
      "ĠmunicÃŃp": 2167,
      "odes": 2168,
      "lection": 2169,
      "Ġindex": 2170,
      "uple": 2171,
      "ĠIs": 2172,
      "Ġsource": 2173,
      "=#": 2174,
      "Ġlev": 2175,
      "Ġmust": 2176,
      "Ġpois": 2177,
      "Ġ(\"": 2178,
      "main": 2179,
      "Ġgroup": 2180,
      "Ġcontr": 2181,
      "osto": 2182,
      "Ġquem": 2183,
      "build": 2184,
      "UN": 2185,
      "ules": 2186,
      "The": 2187,
      "Ġmode": 2188,
      "Ġseja": 2189,
      "ocket": 2190,
      "EX": 2191,
      "anged": 2192,
      "conn": 2193,
      "Ġbgcolor": 2194,
      "event": 2195,
      "[:": 2196,
      "Fil": 2197,
      "Ġcul": 2198,
      "ĠAnt": 2199,
      "Ġarray": 2200,
      "PO": 2201,
      "ql": 2202,
      "ĠDE": 2203,
      "ĠregiÃ£o": 2204,
      "Ġalguns": 2205,
      "aises": 2206,
      "Co": 2207,
      "igos": 2208,
      "})": 2209,
      "'}),": 2210,
      "Ġneg": 2211,
      "angu": 2212,
      "Par": 2213,
      "filename": 2214,
      "Not": 2215,
      "Ġtotal": 2216,
      "Ġtarget": 2217,
      "match": 2218,
      "Ġobj": 2219,
      "float": 2220,
      "Ġpodem": 2221,
      "Ġcreate": 2222,
      "Ġ]": 2223,
      "source": 2224,
      "sor": 2225,
      "ografia": 2226,
      "Case": 2227,
      "Ãºm": 2228,
      "ĠMas": 2229,
      "TP": 2230,
      "inh": 2231,
      "find": 2232,
      "Ġmock": 2233,
      "As": 2234,
      "ĠSer": 2235,
      "hed": 2236,
      "sol": 2237,
      "Ġexec": 2238,
      "ĠIN": 2239,
      "ilo": 2240,
      "dio": 2241,
      "Time": 2242,
      "ivel": 2243,
      "TER": 2244,
      "ĠlanÃ§": 2245,
      "=[": 2246,
      "ĠEstados": 2247,
      "Ã©t": 2248,
      "Ġve": 2249,
      "emos": 2250,
      "Ġed": 2251,
      "scri": 2252,
      "Ġloc": 2253,
      "Ġcome": 2254,
      "Ġfields": 2255,
      "Ġq": 2256,
      "Ġsize": 2257,
      "Ġ--": 2258,
      "Ġamb": 2259,
      "ike": 2260,
      "Ġten": 2261,
      "ĠSoc": 2262,
      "Ãºs": 2263,
      "Ġgener": 2264,
      "ÃŃst": 2265,
      "lb": 2266,
      "address": 2267,
      "Ġintern": 2268,
      "Ãºbl": 2269,
      "ÃŃcio": 2270,
      "ulher": 2271,
      "Ġporque": 2272,
      "target": 2273,
      "ustr": 2274,
      "Ġtip": 2275,
      "title": 2276,
      "files": 2277,
      "uration": 2278,
      "idget": 2279,
      "Ġvai": 2280,
      "Ġproble": 2281,
      "sum": 2282,
      "flow": 2283,
      "Ġempres": 2284,
      "iÃ§Ãµes": 2285,
      "func": 2286,
      "Ġfiles": 2287,
      "Ġ},": 2288,
      "ĠjÃ¡": 2289,
      "tail": 2290,
      "ambda": 2291,
      "Ġopen": 2292,
      "},": 2293,
      "python": 2294,
      "Ġabr": 2295,
      "Ġaj": 2296,
      "Ġperson": 2297,
      "andle": 2298,
      "ĠUnidos": 2299,
      "uerra": 2300,
      "Ġsess": 2301,
      "ESS": 2302,
      "Ġaqu": 2303,
      "iar": 2304,
      "Ġantes": 2305,
      "exec": 2306,
      "Base": 2307,
      "Ġdec": 2308,
      "Ã§as": 2309,
      "aca": 2310,
      "ĠFor": 2311,
      "Ġapro": 2312,
      "na": 2313,
      "istema": 2314,
      "the": 2315,
      "ĠOR": 2316,
      "dem": 2317,
      "Ġtrabalho": 2318,
      "////////": 2319,
      "(_": 2320,
      "function": 2321,
      "iano": 2322,
      "ĠGeneral": 2323,
      "Ġapar": 2324,
      "Ġped": 2325,
      "query": 2326,
      "********": 2327,
      "ordo": 2328,
      "Ġmeio": 2329,
      "Ġpublic": 2330,
      "Ġesse": 2331,
      "ync": 2332,
      "Ġequ": 2333,
      "Address": 2334,
      "ĠĠĠĠčĊ": 2335,
      "annel": 2336,
      "HE": 2337,
      "ĠapÃ³s": 2338,
      "Ġread": 2339,
      "Os": 2340,
      "viron": 2341,
      "ques": 2342,
      "close": 2343,
      "Ġexem": 2344,
      "TR": 2345,
      "wer": 2346,
      "Ġoutro": 2347,
      "Ġcasa": 2348,
      "Ġvalid": 2349,
      "Ġmus": 2350,
      "ĠNa": 2351,
      "mode": 2352,
      "ĠpolÃŃt": 2353,
      "Ġaction": 2354,
      "Ġoptions": 2355,
      "iment": 2356,
      "Ġpens": 2357,
      "ren": 2358,
      "String": 2359,
      "local": 2360,
      "izar": 2361,
      "Ġfin": 2362,
      "stit": 2363,
      "Ġmult": 2364,
      "ulos": 2365,
      "Ġhelp": 2366,
      "Ġfilme": 2367,
      "ors": 2368,
      "Ġessa": 2369,
      "Ġexpress": 2370,
      "project": 2371,
      "Ġsido": 2372,
      "Ġsur": 2373,
      "ĠBar": 2374,
      "Ġnovo": 2375,
      "Ã¡ria": 2376,
      "copy": 2377,
      "xml": 2378,
      "fail": 2379,
      "Ġprod": 2380,
      "Ġatrav": 2381,
      "Ġcond": 2382,
      "way": 2383,
      "tual": 2384,
      "Ġdesde": 2385,
      "env": 2386,
      "ĠGu": 2387,
      "ĠSee": 2388,
      "ĠValue": 2389,
      "Ġclient": 2390,
      "ML": 2391,
      "image": 2392,
      "cel": 2393,
      "Ġdez": 2394,
      "Ġnames": 2395,
      "Ã¡vel": 2396,
      "Ġsegundo": 2397,
      "Ã³n": 2398,
      "Col": 2399,
      "any": 2400,
      "Ġdivers": 2401,
      "session": 2402,
      "unda": 2403,
      "Ġmom": 2404,
      "ene": 2405,
      "Ġbar": 2406,
      "Ġrepresent": 2407,
      "Ġpartir": 2408,
      "post": 2409,
      "open": 2410,
      "tim": 2411,
      "ĠUnivers": 2412,
      "iled": 2413,
      "Ġrespon": 2414,
      "Ġlimit": 2415,
      "ĠPy": 2416,
      "ĠCo": 2417,
      "ĠIt": 2418,
      "senta": 2419,
      "Ip": 2420,
      "Ġvia": 2421,
      "Ġgiven": 2422,
      "Ġorgan": 2423,
      "Ġ'%": 2424,
      "Ġdirect": 2425,
      "FF": 2426,
      "off": 2427,
      "los": 2428,
      "amentos": 2429,
      "Ġmon": 2430,
      "ĠPublic": 2431,
      "ĠĠĠĠĠĠĠĠĠĠĠĠĠĠĠĠĠĠĠĠĠĠĠĠĠĠĠĠĠĠĠ": 2432,
      "Up": 2433,
      "Ġinform": 2434,
      "Ġlugar": 2435,
      "Th": 2436,
      "Ġfirst": 2437,
      "Ã³g": 2438,
      "Ã¡rias": 2439,
      "Ġdir": 2440,
      "Ġref": 2441,
      "duc": 2442,
      "ish": 2443,
      "cour": 2444,
      "adr": 2445,
      "tributes": 2446,
      "Ġnet": 2447,
      "utf": 2448,
      "keys": 2449,
      "ingle": 2450,
      "ized": 2451,
      ":`": 2452,
      "Ġdoes": 2453,
      "lio": 2454,
      "ĠAss": 2455,
      "patch": 2456,
      "ĠsÃ©c": 2457,
      "imos": 2458,
      "Ġdese": 2459,
      "rix": 2460,
      "\\\\": 2461,
      "Ġmodels": 2462,
      "Object": 2463,
      "mock": 2464,
      "Ġmov": 2465,
      "Ġgrupo": 2466,
      "Ġcaus": 2467,
      "HT": 2468,
      "xy": 2469,
      "avel": 2470,
      "utos": 2471,
      "atos": 2472,
      "ĠCor": 2473,
      "Ġmore": 2474,
      "ona": 2475,
      "esa": 2476,
      "ning": 2477,
      "Ġmud": 2478,
      "tar": 2479,
      "Ġback": 2480,
      "IR": 2481,
      "Ġinf": 2482,
      "ĠWe": 2483,
      ")))": 2484,
      "ĠmunicÃŃpio": 2485,
      "icao": 2486,
      "iana": 2487,
      "search": 2488,
      "Ġdb": 2489,
      "Ġacon": 2490,
      "unk": 2491,
      "Ġocor": 2492,
      "task": 2493,
      "ear": 2494,
      "Ap": 2495,
      "Ver": 2496,
      "ĠtrÃªs": 2497,
      "Ġdi": 2498,
      "sl": 2499,
      "ĠCON": 2500,
      "ove": 2501,
      "ĠCas": 2502,
      "Ġdistribu": 2503,
      "fore": 2504,
      "Ġdjango": 2505,
      "Ġgu": 2506,
      "Ġens": 2507,
      "Ġwork": 2508,
      "df": 2509,
      "Ġdias": 2510,
      "Model": 2511,
      "debug": 2512,
      "ward": 2513,
      "Cont": 2514,
      "att": 2515,
      "Ġmenos": 2516,
      "Ġespecial": 2517,
      "isas": 2518,
      "Ġamor": 2519,
      "Ġil": 2520,
      "Ġpequ": 2521,
      "token": 2522,
      "Ġident": 2523,
      "Ġdesenvolv": 2524,
      "Ġide": 2525,
      "PL": 2526,
      "ideo": 2527,
      "Ġnova": 2528,
      "Is": 2529,
      "Ġhabitantes": 2530,
      "page": 2531,
      "Ġpack": 2532,
      "utr": 2533,
      "car": 2534,
      "Ġserver": 2535,
      "Ġtodas": 2536,
      "IO": 2537,
      "Ġlado": 2538,
      "kip": 2539,
      "ĠTer": 2540,
      "uem": 2541,
      "Ġtent": 2542,
      "Ġhoje": 2543,
      "ĠGNU": 2544,
      "parent": 2545,
      "Ġdefin": 2546,
      "assertTrue": 2547,
      "ĠValueError": 2548,
      "Char": 2549,
      "char": 2550,
      "iente": 2551,
      "ila": 2552,
      "delete": 2553,
      "Des": 2554,
      "Ġfran": 2555,
      "atic": 2556,
      "Ele": 2557,
      "ither": 2558,
      "Ġverdade": 2559,
      "ga": 2560,
      "ba": 2561,
      "irm": 2562,
      "ĠBo": 2563,
      "tocol": 2564,
      "uper": 2565,
      "ral": 2566,
      "istem": 2567,
      "ĠGran": 2568,
      "reak": 2569,
      "Ġger": 2570,
      "cas": 2571,
      "igh": 2572,
      "assertR": 2573,
      "Ġdiz": 2574,
      "ident": 2575,
      "Ġge": 2576,
      "ustom": 2577,
      "ministr": 2578,
      "ĠOF": 2579,
      "TestCase": 2580,
      "ĠYou": 2581,
      "Ġprom": 2582,
      ");": 2583,
      "hout": 2584,
      "wo": 2585,
      "~~": 2586,
      "yle": 2587,
      "asses": 2588,
      "ze": 2589,
      "\">": 2590,
      "ĉĉĉĉ": 2591,
      "EST": 2592,
      "ĠmÃºs": 2593,
      "CON": 2594,
      "Ġacordo": 2595,
      "Ġlabel": 2596,
      "settings": 2597,
      "Ġtec": 2598,
      "Ġconsegu": 2599,
      "ourse": 2600,
      "Ġparent": 2601,
      "lines": 2602,
      "Ġdocument": 2603,
      "xe": 2604,
      "Ġvir": 2605,
      "IP": 2606,
      "Ġcob": 2607,
      "actory": 2608,
      "ĠentÃ£o": 2609,
      "Ġep": 2610,
      "anguage": 2611,
      "description": 2612,
      "Ġtom": 2613,
      "box": 2614,
      "Ġqualquer": 2615,
      "forma": 2616,
      "ĠPortugal": 2617,
      "Ġenquanto": 2618,
      "raw": 2619,
      "Ġ...": 2620,
      "Ġapresent": 2621,
      "Ġquery": 2622,
      "child": 2623,
      "Ġpost": 2624,
      "ons": 2625,
      "constru": 2626,
      "Ã¡s": 2627,
      "Ġfac": 2628,
      "ĠespÃ©c": 2629,
      "property": 2630,
      "ink": 2631,
      "Ãªn": 2632,
      "opyright": 2633,
      "ĠĠĠĠĠĠĠĠčĊ": 2634,
      "exist": 2635,
      "Ġobjet": 2636,
      "osa": 2637,
      "Ġteve": 2638,
      "ld": 2639,
      "ĠReturns": 2640,
      "Ã©rie": 2641,
      "Ġmulher": 2642,
      "depend": 2643,
      "icy": 2644,
      "ension": 2645,
      "ithout": 2646,
      "rig": 2647,
      "cmd": 2648,
      "Ġeram": 2649,
      "ĠAd": 2650,
      "mb": 2651,
      "ualmente": 2652,
      "conf": 2653,
      "ceu": 2654,
      "ĠÃī": 2655,
      "roll": 2656,
      "uint": 2657,
      "Ġnem": 2658,
      "ting": 2659,
      "pen": 2660,
      "ĠĠĠĠĠĠĠĠĠĠĠĠĠĠĠĠĠ": 2661,
      "({": 2662,
      "Form": 2663,
      "Ġprojet": 2664,
      "unca": 2665,
      "Ġsistema": 2666,
      "Ġgeral": 2667,
      "Text": 2668,
      "Ġorder": 2669,
      "Ġaconte": 2670,
      "mat": 2671,
      "eiro": 2672,
      "arning": 2673,
      "Ġover": 2674,
      "dr": 2675,
      "ĠIS": 2676,
      "cp": 2677,
      "ced": 2678,
      ")]": 2679,
      "ĠfamÃŃlia": 2680,
      "xa": 2681,
      "Ġdistributed": 2682,
      "INE": 2683,
      "ĠĠĠĠĠĠĠĠĠĠĠĠĠĠĠĠĠĠĠĠĠ": 2684,
      "Ġpouco": 2685,
      "ector": 2686,
      "termin": 2687,
      "produ": 2688,
      "Ġestud": 2689,
      "del": 2690,
      "Ġalgumas": 2691,
      "range": 2692,
      "Ġresp": 2693,
      "Ġparams": 2694,
      "ights": 2695,
      "Ġtal": 2696,
      "assertRaises": 2697,
      "Ġtrad": 2698,
      "Ġemb": 2699,
      "Ġinit": 2700,
      "ĠNao": 2701,
      "ugin": 2702,
      "oper": 2703,
      "course": 2704,
      "ĠFl": 2705,
      "ĠPara": 2706,
      "ply": 2707,
      "rer": 2708,
      "onto": 2709,
      "Ġip": 2710,
      "aixo": 2711,
      "Ġpubl": 2712,
      "Ġparser": 2713,
      "Ġacab": 2714,
      "Ġfim": 2715,
      "Ġelement": 2716,
      "iedade": 2717,
      "idd": 2718,
      "ĠGr": 2719,
      "ecer": 2720,
      "indow": 2721,
      "Ipv": 2722,
      "inst": 2723,
      "âĢĵ": 2724,
      "Ã³rio": 2725,
      "Ġpat": 2726,
      "empty": 2727,
      "aro": 2728,
      "prov": 2729,
      "amples": 2730,
      "Ġtur": 2731,
      "Ġsoftware": 2732,
      "abled": 2733,
      "IX": 2734,
      "Ġajud": 2735,
      "reate": 2736,
      "Ġred": 2737,
      "ĠPer": 2738,
      "current": 2739,
      "Ġpap": 2740,
      "clude": 2741,
      "Ġvoc": 2742,
      "unit": 2743,
      "Ġfez": 2744,
      "Ġusing": 2745,
      "ĠTr": 2746,
      "own": 2747,
      "pat": 2748,
      "Ġchar": 2749,
      "Ġuid": 2750,
      "Ġroot": 2751,
      "imal": 2752,
      "FAFA": 2753,
      "CE": 2754,
      "Ġpresen": 2755,
      "enda": 2756,
      "ĠAnd": 2757,
      "ĠVer": 2758,
      "Ġcontent": 2759,
      "plication": 2760,
      "Ġig": 2761,
      "Ġblock": 2762,
      "ves": 2763,
      "Ġesper": 2764,
      "Bu": 2765,
      "ven": 2766,
      "hn": 2767,
      "Retur": 2768,
      "Ġfer": 2769,
      "*-": 2770,
      "ĠsÃ©culo": 2771,
      "iram": 2772,
      "anca": 2773,
      "Ġparticip": 2774,
      "rar": 2775,
      "={": 2776,
      "Exception": 2777,
      "User": 2778,
      "Ġfilter": 2779,
      "ond": 2780,
      "ĠÃłs": 2781,
      "other": 2782,
      "Ġstatus": 2783,
      "Ġpalav": 2784,
      "ĠĠĠĠĠĠĠĠĠĠĠĠĠĠĠĠĠĠĠĠĠĠĠĠĠ": 2785,
      "ote": 2786,
      "Ġleg": 2787,
      "Ġhor": 2788,
      "Ġexemplo": 2789,
      "ped": 2790,
      "ĠReg": 2791,
      "device": 2792,
      "imple": 2793,
      "omet": 2794,
      "ush": 2795,
      "template": 2796,
      "Ġrom": 2797,
      "pert": 2798,
      "Ġbuild": 2799,
      "Ġcent": 2800,
      "Ġjust": 2801,
      "Pr": 2802,
      "Ġsucess": 2803,
      "ATE": 2804,
      "An": 2805,
      "ĠMan": 2806,
      "Ġmake": 2807,
      "Ġbanda": 2808,
      "plied": 2809,
      "cio": 2810,
      "ulho": 2811,
      "Ġtele": 2812,
      "Ġoriginal": 2813,
      "pop": 2814,
      "IB": 2815,
      "Ġimage": 2816,
      ")),": 2817,
      "down": 2818,
      "ization": 2819,
      "ĠJaneiro": 2820,
      "Ġ'\\": 2821,
      "Ġmuitos": 2822,
      "ĠĠĠĠĠĠĠĠĠĠĠĠĠĠĠĠĠĠĠĠ": 2823,
      "Ġfilename": 2824,
      "ility": 2825,
      "ĠANY": 2826,
      "Ġportug": 2827,
      "xf": 2828,
      "ĠÃģ": 2829,
      "Check": 2830,
      "OP": 2831,
      "sign": 2832,
      "esc": 2833,
      "sa": 2834,
      "Ġson": 2835,
      "Ġaqui": 2836,
      "ericano": 2837,
      "ola": 2838,
      "ency": 2839,
      "header": 2840,
      "Ġ-*-": 2841,
      "cted": 2842,
      "ival": 2843,
      "lease": 2844,
      "Ġdem": 2845,
      "ĠTe": 2846,
      "Ġhavia": 2847,
      "Attribute": 2848,
      "ipe": 2849,
      "stream": 2850,
      "SS": 2851,
      "ĠSul": 2852,
      "Ġwhile": 2853,
      "Ġdele": 2854,
      "Ġtoda": 2855,
      "Ġjson": 2856,
      "quele": 2857,
      "Ġquais": 2858,
      "Ġeach": 2859,
      "exception": 2860,
      "Ġtre": 2861,
      "rou": 2862,
      "Ġcase": 2863,
      "cls": 2864,
      "Ġerr": 2865,
      "Ġsin": 2866,
      "elho": 2867,
      "Ġgo": 2868,
      "Ġeither": 2869,
      "Ġecon": 2870,
      "ailed": 2871,
      "last": 2872,
      "fault": 2873,
      "Ġmuitas": 2874,
      "ĠEnt": 2875,
      "rios": 2876,
      "avor": 2877,
      "Ã©rio": 2878,
      "abase": 2879,
      "gen": 2880,
      "ĠCopyright": 2881,
      "prefix": 2882,
      "ĠmÃ©d": 2883,
      "ARR": 2884,
      "reira": 2885,
      "Ġtendo": 2886,
      "eros": 2887,
      "Ġjogo": 2888,
      "Po": 2889,
      "Ġvers": 2890,
      "cle": 2891,
      "Ġgoverno": 2892,
      "atura": 2893,
      "Ġneed": 2894,
      "ating": 2895,
      "ĠnÃºm": 2896,
      "uma": 2897,
      "Ġopt": 2898,
      "Ġtar": 2899,
      "Ġinto": 2900,
      "ĠFil": 2901,
      "Ġbom": 2902,
      "strip": 2903,
      "ause": 2904,
      "Ġcerca": 2905,
      "Qu": 2906,
      "Ġax": 2907,
      "Ġrest": 2908,
      "ful": 2909,
      "ypes": 2910,
      "MA": 2911,
      "oci": 2912,
      "ĠUm": 2913,
      "aa": 2914,
      "ifier": 2915,
      "Ġfound": 2916,
      "ics": 2917,
      "Ġalem": 2918,
      "replace": 2919,
      "Ġ'/": 2920,
      "mark": 2921,
      "save": 2922,
      "Ġmos": 2923,
      "Ġwas": 2924,
      "ĠÃºlt": 2925,
      "ries": 2926,
      "Ġtable": 2927,
      "ema": 2928,
      "vio": 2929,
      "Ġdeve": 2930,
      "Ġdtype": 2931,
      "ama": 2932,
      "duz": 2933,
      "Ġgrav": 2934,
      "Ġconnection": 2935,
      "sem": 2936,
      "Local": 2937,
      "width": 2938,
      "Ġlogging": 2939,
      "enses": 2940,
      "iction": 2941,
      "Ġur": 2942,
      "Bo": 2943,
      "password": 2944,
      "Ġdim": 2945,
      "ĠÃ¡lb": 2946,
      "ĠpaÃŃs": 2947,
      "cond": 2948,
      "less": 2949,
      "ĠEu": 2950,
      "Ġativ": 2951,
      "Ġcontinu": 2952,
      "med": 2953,
      "Ġseguinte": 2954,
      "heiro": 2955,
      "Ġha": 2956,
      "iza": 2957,
      "xc": 2958,
      "Ġmot": 2959,
      "icle": 2960,
      "ĠWIT": 2961,
      "now": 2962,
      "argument": 2963,
      "mail": 2964,
      "body": 2965,
      "xim": 2966,
      "ĠcomeÃ§": 2967,
      "AME": 2968,
      "Node": 2969,
      "Ġmim": 2970,
      "Ġexception": 2971,
      "Ġcontinue": 2972,
      "Ġfloat": 2973,
      "level": 2974,
      "Ġproduz": 2975,
      "Ġescrit": 2976,
      "ament": 2977,
      "xb": 2978,
      "ago": 2979,
      "admin": 2980,
      "Ã§os": 2981,
      "inhos": 2982,
      "Ġdescob": 2983,
      "Ġcompos": 2984,
      "ĠPl": 2985,
      "sos": 2986,
      "ĠhistÃ³ria": 2987,
      "').": 2988,
      "resh": 2989,
      "swith": 2990,
      "Ġtask": 2991,
      "Config": 2992,
      "Ġresults": 2993,
      "QU": 2994,
      "OL": 2995,
      "','": 2996,
      "ported": 2997,
      "Ã¢ncia": 2998,
      "Ġnada": 2999,
      "Ġsitu": 3000,
      "Ġkwargs": 3001,
      "bra": 3002,
      "bles": 3003,
      "service": 3004,
      "CL": 3005,
      "igr": 3006,
      "aces": 3007,
      "ords": 3008,
      "dout": 3009,
      "uture": 3010,
      "à¤": 3011,
      "su": 3012,
      "EL": 3013,
      "ten": 3014,
      "Ġnunca": 3015,
      "Ġattr": 3016,
      "Ġtag": 3017,
      "uais": 3018,
      "ĠdÃ©c": 3019,
      "uel": 3020,
      "account": 3021,
      "Ġcab": 3022,
      "opa": 3023,
      "ovo": 3024,
      "Ġagora": 3025,
      "Ġimportante": 3026,
      "ides": 3027,
      "tails": 3028,
      "Ġnorte": 3029,
      "Ġcmd": 3030,
      "Ġtempor": 3031,
      "VER": 3032,
      "Ġtoken": 3033,
      "ĠFoi": 3034,
      "reu": 3035,
      "pk": 3036,
      "quence": 3037,
      "Ġcant": 3038,
      "role": 3039,
      "rias": 3040,
      "ativo": 3041,
      "Ġtermin": 3042,
      "ĠÃ©p": 3043,
      "void": 3044,
      "________": 3045,
      "Ġwithout": 3046,
      "Ġload": 3047,
      "dev": 3048,
      "ogle": 3049,
      "Item": 3050,
      "ference": 3051,
      "Ġexper": 3052,
      "rect": 3053,
      "cope": 3054,
      "Ġcoloc": 3055,
      "teri": 3056,
      "[-": 3057,
      "Ġsex": 3058,
      "ĠOl": 3059,
      "ariables": 3060,
      "Ġinfl": 3061,
      "mt": 3062,
      "ymbol": 3063,
      "Ġpessoa": 3064,
      "ĠCal": 3065,
      "uÃ§Ã£o": 3066,
      "uiÃ§Ã£o": 3067,
      "datetime": 3068,
      "Ġiter": 3069,
      "Ġupdate": 3070,
      "ĠMe": 3071,
      "orage": 3072,
      "atform": 3073,
      "ITY": 3074,
      "Ġmater": 3075,
      "Ġdentro": 3076,
      "Ġdisse": 3077,
      "Ġestar": 3078,
      "atures": 3079,
      "Ġmesma": 3080,
      "round": 3081,
      "Ġtensor": 3082,
      "Ġserv": 3083,
      "email": 3084,
      "static": 3085,
      "ialize": 3086,
      "ĠĠĠĠĠĠĠĠĠĠĠĠĠĠĠĠĠĠĠĠĠĠ": 3087,
      "Ġspecified": 3088,
      "Ġremo": 3089,
      "Ġlast": 3090,
      "ARRANT": 3091,
      "Ġcoisas": 3092,
      "Request": 3093,
      "ĠMa": 3094,
      "gn": 3095,
      "ĠWARRANT": 3096,
      "ĠperÃŃ": 3097,
      "number": 3098,
      "Ġsc": 3099,
      "era": 3100,
      "connection": 3101,
      "oto": 3102,
      "Ġoutra": 3103,
      "inos": 3104,
      "ĠLa": 3105,
      "Ġglobal": 3106,
      "(*": 3107,
      "ĠTem": 3108,
      "ĠSal": 3109,
      "Est": 3110,
      "sets": 3111,
      "hel": 3112,
      "peon": 3113,
      "OM": 3114,
      "teger": 3115,
      "wit": 3116,
      "ÃŃncia": 3117,
      "oma": 3118,
      "PI": 3119,
      "Ġsee": 3120,
      "verse": 3121,
      "Ġallow": 3122,
      "frame": 3123,
      "ayer": 3124,
      "ĠEl": 3125,
      "ĠBe": 3126,
      "abele": 3127,
      "cimento": 3128,
      "bs": 3129,
      "Ġdisso": 3130,
      "XX": 3131,
      "location": 3132,
      "uta": 3133,
      "Ġcres": 3134,
      "Ġans": 3135,
      "Log": 3136,
      "ĠMaria": 3137,
      "Ġcaso": 3138,
      "tab": 3139,
      "ĠGrande": 3140,
      "Ġnormal": 3141,
      "orro": 3142,
      "ĠVal": 3143,
      "Ã¡tica": 3144,
      "Ġsame": 3145,
      "unho": 3146,
      "Ġnatur": 3147,
      "air": 3148,
      "Ġcir": 3149,
      "Ġmal": 3150,
      "td": 3151,
      "expected": 3152,
      "make": 3153,
      "Ġlink": 3154,
      "Ġseria": 3155,
      "ĠÃ¡gua": 3156,
      "Ġthen": 3157,
      "Ġchild": 3158,
      "ĠNot": 3159,
      "grad": 3160,
      "entemente": 3161,
      "ances": 3162,
      "Ġyield": 3163,
      "ĠPal": 3164,
      "Ġfilho": 3165,
      "Path": 3166,
      "Ġsor": 3167,
      "Ġ'.": 3168,
      "eca": 3169,
      "Ġrev": 3170,
      "posit": 3171,
      "antas": 3172,
      "ution": 3173,
      "Ġmorte": 3174,
      "Ġ[\"": 3175,
      "ived": 3176,
      "ccess": 3177,
      "ĠPol": 3178,
      "CharField": 3179,
      "ĠRec": 3180,
      "Ġadministr": 3181,
      "Reg": 3182,
      "Tag": 3183,
      "Ġgrandes": 3184,
      "ari": 3185,
      "err": 3186,
      "Out": 3187,
      "enso": 3188,
      "Ġ''": 3189,
      "Ġbot": 3190,
      "Ġautor": 3191,
      "ĠPed": 3192,
      "Le": 3193,
      "Ġtanto": 3194,
      "Ġunit": 3195,
      "Ġtipo": 3196,
      "Class": 3197,
      "ĠÃ©poca": 3198,
      "ĠEstado": 3199,
      "]:": 3200,
      "Ġdesta": 3201,
      "Ġtri": 3202,
      "ĠsÃ©rie": 3203,
      "umento": 3204,
      "TY": 3205,
      "undial": 3206,
      "pool": 3207,
      "gener": 3208,
      "ished": 3209,
      "Ġmomento": 3210,
      "nown": 3211,
      "ĠException": 3212,
      "Ġquatro": 3213,
      "actor": 3214,
      "Ã´m": 3215,
      "omia": 3216,
      "UP": 3217,
      "only": 3218,
      "ULT": 3219,
      "bit": 3220,
      "Ġdepend": 3221,
      "constructor": 3222,
      "ubro": 3223,
      "send": 3224,
      "Ã¡f": 3225,
      "ĠSeg": 3226,
      "mult": 3227,
      "icode": 3228,
      "via": 3229,
      "remove": 3230,
      "\"))": 3231,
      "Ġyour": 3232,
      "dtype": 3233,
      "Ġapr": 3234,
      "ression": 3235,
      "ĠAg": 3236,
      "Ġpage": 3237,
      "ĠSant": 3238,
      "src": 3239,
      "Ġcateg": 3240,
      "book": 3241,
      "ĠÃ¡lbum": 3242,
      "ART": 3243,
      "Ġreturned": 3244,
      "Ġlig": 3245,
      "Ġuso": 3246,
      "Ġbus": 3247,
      "Ġsof": 3248,
      "Ġcaracter": 3249,
      "ĠEuro": 3250,
      "Ġpassou": 3251,
      "ĠNova": 3252,
      "ĠTO": 3253,
      "Ġdirectory": 3254,
      "ĠJos": 3255,
      "Ġtim": 3256,
      "ulas": 3257,
      "Na": 3258,
      "Ġbrasileiro": 3259,
      "Ġbreak": 3260,
      "Ġresol": 3261,
      "parser": 3262,
      "ilh": 3263,
      "Ġbran": 3264,
      "He": 3265,
      "Ġdatetime": 3266,
      "Ġfollow": 3267,
      "lot": 3268,
      "dum": 3269,
      "Man": 3270,
      "ĠPython": 3271,
      "Ġdecl": 3272,
      "Ġescre": 3273,
      "Ġcho": 3274,
      "ready": 3275,
      "Ġrow": 3276,
      "Ġkm": 3277,
      "Ġshow": 3278,
      "Ġtro": 3279,
      "mission": 3280,
      "bose": 3281,
      "uster": 3282,
      "Ġcorpo": 3283,
      "Ġ\"%": 3284,
      "fn": 3285,
      "'''": 3286,
      "Ġprocesso": 3287,
      "rary": 3288,
      "perties": 3289,
      "Ġestim": 3290,
      "Ġproject": 3291,
      "adora": 3292,
      "ĠNacional": 3293,
      "cia": 3294,
      "ĠDes": 3295,
      "itude": 3296,
      "oes": 3297,
      "lex": 3298,
      "Ġheader": 3299,
      "ĠalÃ©m": 3300,
      "Ġexpl": 3301,
      "null": 3302,
      "essas": 3303,
      "essages": 3304,
      "encode": 3305,
      "Ġtornou": 3306,
      "Ġoff": 3307,
      "ĠnÃºmero": 3308,
      "Ġquest": 3309,
      "anas": 3310,
      "Dis": 3311,
      "uss": 3312,
      "Ġsera": 3313,
      "Ġpont": 3314,
      "gress": 3315,
      "connect": 3316,
      "author": 3317,
      "Ġtao": 3318,
      "Ġlivro": 3319,
      "quipe": 3320,
      "tembro": 3321,
      "uras": 3322,
      "Ġsettings": 3323,
      "ants": 3324,
      "Ġshape": 3325,
      "Ġnon": 3326,
      "umns": 3327,
      "peonato": 3328,
      "ites": 3329,
      "Ã©rc": 3330,
      "Ġ),": 3331,
      "domain": 3332,
      "Ġfind": 3333,
      "Ġtor": 3334,
      "rt": 3335,
      "Ġentanto": 3336,
      "Ġbool": 3337,
      "ornal": 3338,
      "Ġsimples": 3339,
      "Ã¢m": 3340,
      "Ġdetermin": 3341,
      "ĠWh": 3342,
      "pc": 3343,
      "âĢĿ": 3344,
      "ĠPre": 3345,
      "older": 3346,
      "random": 3347,
      "Ġmap": 3348,
      "wh": 3349,
      "ĠatravÃ©s": 3350,
      "ng": 3351,
      "ulg": 3352,
      "oso": 3353,
      "GL": 3354,
      "Ġsession": 3355,
      "dist": 3356,
      "Ġpag": 3357,
      "IV": 3358,
      "uindo": 3359,
      "icaÃ§Ã£o": 3360,
      "first": 3361,
      "ae": 3362,
      "Ġtemplate": 3363,
      "Ġoficial": 3364,
      "Ġdar": 3365,
      "Ġvolta": 3366,
      "uct": 3367,
      "quir": 3368,
      "Ġtransform": 3369,
      "fs": 3370,
      "ĠGet": 3371,
      "metadata": 3372,
      "Ġtrat": 3373,
      "next": 3374,
      "Ġnuma": 3375,
      "conhec": 3376,
      "Val": 3377,
      "Ġquanto": 3378,
      "ĠSanta": 3379,
      "respon": 3380,
      "req": 3381,
      "uv": 3382,
      "istÃ³ria": 3383,
      "`.": 3384,
      "utton": 3385,
      "column": 3386,
      "Dict": 3387,
      "cc": 3388,
      "grafia": 3389,
      "ĠperÃŃodo": 3390,
      "Ãºblica": 3391,
      "Ġrep": 3392,
      "aixa": 3393,
      "ĠGe": 3394,
      "ah": 3395,
      "ÃŃf": 3396,
      "Ġcache": 3397,
      "graph": 3398,
      "feito": 3399,
      "Ġdevido": 3400,
      "cap": 3401,
      "Ġwrit": 3402,
      "CA": 3403,
      "store": 3404,
      "show": 3405,
      "osse": 3406,
      "Ġregister": 3407,
      "By": 3408,
      "ĠHT": 3409,
      "Ġquase": 3410,
      "eto": 3411,
      "unicip": 3412,
      "tools": 3413,
      "Ġhomem": 3414,
      "Ġcert": 3415,
      "utor": 3416,
      "Ġterra": 3417,
      "resource": 3418,
      "ential": 3419,
      "ification": 3420,
      "ched": 3421,
      "cret": 3422,
      "Ġ',": 3423,
      "Ġindic": 3424,
      "Ġrandom": 3425,
      "Ġmiss": 3426,
      "ĠJoÃ£o": 3427,
      "ĠCan": 3428,
      "Ġimple": 3429,
      "headers": 3430,
      "etch": 3431,
      "ometry": 3432,
      "ĠinÃŃcio": 3433,
      "Ġpelas": 3434,
      "\"],": 3435,
      "Ã³l": 3436,
      "Ġextra": 3437,
      "ris": 3438,
      "ĠĠĠĠĠĠĠĠĠĠĠĠĠĠĠĠĠĠĠĠĠĠĠĠĠĠĠĠ": 3439,
      "Ġtarde": 3440,
      "Ġabo": 3441,
      "ij": 3442,
      "ĠRo": 3443,
      "ĠĠĠĠĠĠĠĠĠĠĠĠĠĠĠĠĠĠĠĠĠĠĠĠĠĠ": 3444,
      "ono": 3445,
      "icio": 3446,
      "OF": 3447,
      "Param": 3448,
      "Ġanim": 3449,
      "ĠhÃ¡": 3450,
      "Ġfrequ": 3451,
      "Call": 3452,
      "Ġpai": 3453,
      "eles": 3454,
      "Ġcourse": 3455,
      "uuid": 3456,
      "Ġpais": 3457,
      "ĠUniversidade": 3458,
      "Ġconhecido": 3459,
      "xd": 3460,
      "Ġfunc": 3461,
      "Ġgar": 3462,
      "abor": 3463,
      "Ġresource": 3464,
      "'].": 3465,
      "bers": 3466,
      "ĠSet": 3467,
      "bros": 3468,
      "asic": 3469,
      "ĠPo": 3470,
      "Ġindiv": 3471,
      "stack": 3472,
      "ĠComo": 3473,
      "')])": 3474,
      "Ġtop": 3475,
      "ĠvÃ¡rios": 3476,
      "related": 3477,
      "rad": 3478,
      "Ġbody": 3479,
      "Ġden": 3480,
      "Ġdiret": 3481,
      "ĠSoftware": 3482,
      "Ġnext": 3483,
      "Ġsepar": 3484,
      "ĠSh": 3485,
      "ited": 3486,
      "Ġmaioria": 3487,
      "Ġsp": 3488,
      "Ġnacional": 3489,
      "wait": 3490,
      "greja": 3491,
      "meta": 3492,
      "ĠmÃºsica": 3493,
      "Ġign": 3494,
      "active": 3495,
      "esus": 3496,
      "ĠDis": 3497,
      "All": 3498,
      "ĠIntern": 3499,
      "Ġmain": 3500,
      "Ġsingle": 3501,
      "Ġdiferentes": 3502,
      "ĠJosÃ©": 3503,
      "xx": 3504,
      "imary": 3505,
      "Ġpoint": 3506,
      "elas": 3507,
      "Ġinfo": 3508,
      "\"):": 3509,
      "ĠÃºn": 3510,
      "Ġconta": 3511,
      "Lo": 3512,
      "Ġparse": 3513,
      "script": 3514,
      "ĠUma": 3515,
      "hash": 3516,
      "Ġlevel": 3517,
      "Event": 3518,
      "Ġsocial": 3519,
      "Ġold": 3520,
      "]]": 3521,
      "Ġalt": 3522,
      "volume": 3523,
      "osta": 3524,
      "reas": 3525,
      "IA": 3526,
      "ĠCont": 3527,
      "Ġequipe": 3528,
      "Ġfamil": 3529,
      "pare": 3530,
      "Ġ..": 3531,
      "tainer": 3532,
      "otos": 3533,
      "adamente": 3534,
      "ĠtÃŃt": 3535,
      "virtual": 3536,
      "ĠâĢľ": 3537,
      "vm": 3538,
      "Ġcount": 3539,
      "ources": 3540,
      "ĠAc": 3541,
      "select": 3542,
      "anho": 3543,
      "Ġinflu": 3544,
      "Ġseri": 3545,
      "umber": 3546,
      "ling": 3547,
      "nap": 3548,
      "('/": 3549,
      "Ġinclude": 3550,
      "txt": 3551,
      "Ã³d": 3552,
      "Ġhere": 3553,
      "ones": 3554,
      "ement": 3555,
      "entry": 3556,
      "Ġnossa": 3557,
      "Ġaddress": 3558,
      "Ġestre": 3559,
      "dim": 3560,
      "ificaÃ§Ã£o": 3561,
      "sup": 3562,
      "Ġrelig": 3563,
      "Ġfutebol": 3564,
      "iew": 3565,
      "Or": 3566,
      "clus": 3567,
      "ĠGo": 3568,
      "Ġtrabalh": 3569,
      "NAME": 3570,
      "ĠSil": 3571,
      "Ġcoisa": 3572,
      "blank": 3573,
      "Ġsegunda": 3574,
      "Ġconn": 3575,
      "ĠestÃ£o": 3576,
      "true": 3577,
      "Ġcorr": 3578,
      "Ġmarc": 3579,
      "okup": 3580,
      "Ġfora": 3581,
      "']['": 3582,
      "Ġpovo": 3583,
      "ĠMin": 3584,
      "Ġconj": 3585,
      "eliz": 3586,
      "Ġentry": 3587,
      "For": 3588,
      "iff": 3589,
      "uth": 3590,
      "ĠSo": 3591,
      "Ge": 3592,
      "Ġattribute": 3593,
      "ativas": 3594,
      "bool": 3595,
      "terior": 3596,
      "username": 3597,
      "std": 3598,
      "Ġwhere": 3599,
      "Ġsele": 3600,
      "ĠRes": 3601,
      "UM": 3602,
      "lower": 3603,
      "nodes": 3604,
      "Ġpossui": 3605,
      "ek": 3606,
      "Ġdin": 3607,
      "TH": 3608,
      "ogo": 3609,
      "ities": 3610,
      "Ġestabele": 3611,
      "Ġdeu": 3612,
      ")):": 3613,
      "Ġthere": 3614,
      "Sub": 3615,
      "Ad": 3616,
      "Ġwrite": 3617,
      "ĠCap": 3618,
      "ĠLINE": 3619,
      "exists": 3620,
      "Ġapp": 3621,
      "Ġdevice": 3622,
      "================================": 3623,
      "Ġpermit": 3624,
      "Ã¡l": 3625,
      "Ġarqu": 3626,
      "Ġprincipais": 3627,
      "Ġ>=": 3628,
      "Ġtecn": 3629,
      "Ġtuple": 3630,
      "Ġatual": 3631,
      "Ġservi": 3632,
      "iod": 3633,
      "Ġcu": 3634,
      "Ġpopular": 3635,
      "inado": 3636,
      "Ġview": 3637,
      "required": 3638,
      "Ġprofess": 3639,
      "Ġpython": 3640,
      "ĠSocorro": 3641,
      "icion": 3642,
      "tel": 3643,
      "Ġpassword": 3644,
      "Ġenerg": 3645,
      "Ġheaders": 3646,
      "fg": 3647,
      "sel": 3648,
      "Ġvalor": 3649,
      "HOUT": 3650,
      "TO": 3651,
      "Ġrecord": 3652,
      "Ġalgo": 3653,
      "Ã©l": 3654,
      "Ġempresa": 3655,
      "Ġnosso": 3656,
      "iaÃ§Ã£o": 3657,
      "ports": 3658,
      "Ġinstal": 3659,
      "loud": 3660,
      "Ġafter": 3661,
      "Ġlongo": 3662,
      "iao": 3663,
      "Ġspecific": 3664,
      "Ġponto": 3665,
      "ĠSen": 3666,
      "ivate": 3667,
      "Ġobjects": 3668,
      "Ã£os": 3669,
      "Info": 3670,
      "ium": 3671,
      "exit": 3672,
      "rot": 3673,
      "ĠII": 3674,
      "Ġperman": 3675,
      "ĠIgreja": 3676,
      "sche": 3677,
      "Size": 3678,
      "olÃ³g": 3679,
      "changed": 3680,
      "Ġlambda": 3681,
      "execute": 3682,
      "tests": 3683,
      "ĠWITHOUT": 3684,
      "Ġsucesso": 3685,
      "tx": 3686,
      "pid": 3687,
      "Date": 3688,
      "visÃ£o": 3689,
      "missions": 3690,
      "ictionary": 3691,
      "ĠAll": 3692,
      "day": 3693,
      "nsible": 3694,
      "future": 3695,
      "Response": 3696,
      "ĠJesus": 3697,
      "ÃŃses": 3698,
      "Ġrespons": 3699,
      "Ġauth": 3700,
      "MO": 3701,
      "ĠLINEAR": 3702,
      "Ġbl": 3703,
      "amed": 3704,
      "iÃµes": 3705,
      "Ġconqu": 3706,
      "FI": 3707,
      "ĠĠĠĠĠĠĠĠĠĠĠĠĠĠĠĠĠĠĠĠĠĠĠĠĠĠĠĠĠĠĠĠĠĠĠ": 3708,
      "Group": 3709,
      "Ġdesenvolvimento": 3710,
      "ORT": 3711,
      "aint": 3712,
      "Ġgovern": 3713,
      "Dem": 3714,
      "Ġficou": 3715,
      "licenses": 3716,
      "Ġmilh": 3717,
      "ĠGuerra": 3718,
      "derr": 3719,
      "ALL": 3720,
      "Ġ{\"": 3721,
      "ises": 3722,
      "ĠdÃ©cada": 3723,
      "KE": 3724,
      "Ġef": 3725,
      "izados": 3726,
      "DB": 3727,
      "Ġedit": 3728,
      "apping": 3729,
      "stop": 3730,
      "Ġobserv": 3731,
      "Ġgen": 3732,
      "lob": 3733,
      "Ġcapital": 3734,
      "aval": 3735,
      "Ġrecebe": 3736,
      "Ġdados": 3737,
      "Pack": 3738,
      "rav": 3739,
      "Inter": 3740,
      "ĠUR": 3741,
      "Ġthan": 3742,
      "Ġnumpy": 3743,
      "Ġfail": 3744,
      "ĠFOR": 3745,
      "Ptr": 3746,
      "veu": 3747,
      "gine": 3748,
      "AA": 3749,
      "oce": 3750,
      "pha": 3751,
      "Ġpresidente": 3752,
      "Ġcolor": 3753,
      "remo": 3754,
      "ĠNe": 3755,
      "Ġdate": 3756,
      "Net": 3757,
      "ĠQuando": 3758,
      "Return": 3759,
      "Ġprote": 3760,
      "Ġimplied": 3761,
      "change": 3762,
      "Ġsome": 3763,
      "ystem": 3764,
      "Ġpesqu": 3765,
      "ILITY": 3766,
      "bytes": 3767,
      "Ġjunt": 3768,
      "Ġlhe": 3769,
      "Ġprograma": 3770,
      "Tr": 3771,
      "ators": 3772,
      "estamp": 3773,
      "Ġjov": 3774,
      "ĠsÃ³": 3775,
      "Ġrecur": 3776,
      "Ġtran": 3777,
      "Ġofer": 3778,
      "Ã¡lia": 3779,
      "]))": 3780,
      "Ġobra": 3781,
      "environ": 3782,
      "Ġlines": 3783,
      "Ã©rica": 3784,
      "gues": 3785,
      "ĠBr": 3786,
      "Ġprefix": 3787,
      "results": 3788,
      "_(": 3789,
      "ertos": 3790,
      "Ġlogger": 3791,
      "can": 3792,
      "ĠBrasile": 3793,
      "access": 3794,
      "leg": 3795,
      "Seg": 3796,
      "Ġdetails": 3797,
      "kk": 3798,
      "Ġ'-": 3799,
      "div": 3800,
      "Ġ\"\\": 3801,
      "Ġconce": 3802,
      "Ġprofiss": 3803,
      "ĠEspanha": 3804,
      "ech": 3805,
      "Ġits": 3806,
      "Ġtitle": 3807,
      "izacao": 3808,
      "Ġprojeto": 3809,
      "present": 3810,
      "vers": 3811,
      "Ġmilitar": 3812,
      "Message": 3813,
      "ĠvÃ¡rias": 3814,
      "Ġmane": 3815,
      "eval": 3816,
      "Ġdezembro": 3817,
      "Ġprincipalmente": 3818,
      "=%": 3819,
      "(?": 3820,
      "Ġpapel": 3821,
      "ift": 3822,
      "Ġinterpre": 3823,
      "coes": 3824,
      "Ġarguments": 3825,
      "Ġthread": 3826,
      "Ġtests": 3827,
      "iple": 3828,
      "Ġservice": 3829,
      "Ġirm": 3830,
      "Ġfix": 3831,
      "Ġprovid": 3832,
      "Ġrelacion": 3833,
      "AO": 3834,
      "gem": 3835,
      "Ġpresent": 3836,
      "Ġeduc": 3837,
      "Ġmac": 3838,
      "Ġdon": 3839,
      "Ġdep": 3840,
      "Ġfuncion": 3841,
      "inar": 3842,
      "Ġsul": 3843,
      "ingu": 3844,
      "Ġsignific": 3845,
      "common": 3846,
      "long": 3847,
      "uri": 3848,
      "register": 3849,
      "Ġchamado": 3850,
      "Ġmo": 3851,
      "ederal": 3852,
      "Ġdivis": 3853,
      "Trans": 3854,
      "Ġdistr": 3855,
      "']:": 3856,
      "rapper": 3857,
      "Ġvit": 3858,
      "PR": 3859,
      "abs": 3860,
      "ÃŃm": 3861,
      "PRO": 3862,
      "Ġnenh": 3863,
      "Ġgal": 3864,
      "elh": 3865,
      "element": 3866,
      "Element": 3867,
      "Ġquant": 3868,
      "ĠTHE": 3869,
      "Ġaber": 3870,
      "Ġnetwork": 3871,
      "ponent": 3872,
      "Localidades": 3873,
      "emin": 3874,
      "train": 3875,
      "Ġtf": 3876,
      "ĠRob": 3877,
      "temp": 3878,
      "Ġdizer": 3879,
      "Ġmy": 3880,
      "ii": 3881,
      "Ġfato": 3882,
      "Ġmerc": 3883,
      "Ġlater": 3884,
      "eff": 3885,
      "section": 3886,
      "Ġcontrol": 3887,
      "ardo": 3888,
      "timeout": 3889,
      "IES": 3890,
      "Ġenf": 3891,
      "Ġestao": 3892,
      "Ã©cn": 3893,
      "Ġsens": 3894,
      "---": 3895,
      "orld": 3896,
      "ee": 3897,
      "plot": 3898,
      "Ġesqu": 3899,
      "ĠTo": 3900,
      "zo": 3901,
      "ĠproduÃ§Ã£o": 3902,
      "tribution": 3903,
      "{}": 3904,
      "comple": 3905,
      "Ġexc": 3906,
      "Handler": 3907,
      "pect": 3908,
      "URL": 3909,
      "Ġmoder": 3910,
      "posta": 3911,
      "Pl": 3912,
      "Ġpas": 3913,
      "Ġjaneiro": 3914,
      "ĠMo": 3915,
      "=(": 3916,
      "Ġassoci": 3917,
      "eceu": 3918,
      "Ġpert": 3919,
      "web": 3920,
      "Ġbefore": 3921,
      "Ġficar": 3922,
      "Ġps": 3923,
      "Ġamericano": 3924,
      "startswith": 3925,
      "rior": 3926,
      "real": 3927,
      "Ġsample": 3928,
      "Ġquar": 3929,
      "tex": 3930,
      "ivas": 3931,
      "Ġinformation": 3932,
      "flags": 3933,
      "very": 3934,
      "product": 3935,
      "Ġsou": 3936,
      "tract": 3937,
      "ĠĠĠĠĠĠĠĠĠĠĠĠĠĠĠĠĠĠĠĠĠĠĠĠĠĠĠĠĠ": 3938,
      "Ġtemp": 3939,
      "Ġapo": 3940,
      "ĠQue": 3941,
      "system": 3942,
      "queue": 3943,
      "ĠLu": 3944,
      "dest": 3945,
      "ĠPart": 3946,
      "??": 3947,
      "yp": 3948,
      "land": 3949,
      "Ġreq": 3950,
      "ĠEla": 3951,
      ")/": 3952,
      "Count": 3953,
      "Ġparameters": 3954,
      "Ġetc": 3955,
      "bot": 3956,
      "icamente": 3957,
      "ternal": 3958,
      "Ġalready": 3959,
      "ĠRed": 3960,
      "ĠCheck": 3961,
      "ailable": 3962,
      "odos": 3963,
      "eu": 3964,
      "Ġtrue": 3965,
      "Ġfeito": 3966,
      "rest": 3967,
      "Ġ$": 3968,
      "channel": 3969,
      "ĠprÃ³p": 3970,
      "ences": 3971,
      "Ġlat": 3972,
      "Stat": 3973,
      "ĠID": 3974,
      "Ġdig": 3975,
      "Ġsum": 3976,
      "mented": 3977,
      "Ġterrit": 3978,
      "Ġterce": 3979,
      ".\")": 3980,
      "ĠType": 3981,
      "uble": 3982,
      "iÃªncia": 3983,
      "IZ": 3984,
      "Ġcria": 3985,
      "IONS": 3986,
      "Ġentao": 3987,
      "ĠOn": 3988,
      "Ġembora": 3989,
      "Ġmag": 3990,
      "Ġcomec": 3991,
      "compile": 3992,
      "Ġmaio": 3993,
      "iado": 3994,
      "groups": 3995,
      "Ġcolumn": 3996,
      "Ġestrut": 3997,
      "Ġgetattr": 3998,
      "Ġjulho": 3999,
      "Ġban": 4000,
      "Ġcomb": 4001,
      "Ġsite": 4002,
      "cha": 4003,
      "ientes": 4004,
      "ĠAdd": 4005,
      "Ġsetembro": 4006,
      "Ġrad": 4007,
      "vereiro": 4008,
      "mask": 4009,
      "limit": 4010,
      "'},": 4011,
      "errors": 4012,
      "Ġreturns": 4013,
      "dia": 4014,
      "tk": 4015,
      "Ġvel": 4016,
      "Ġlength": 4017,
      "Ġ],": 4018,
      "IST": 4019,
      "Ġoutubro": 4020,
      "ĠFound": 4021,
      "ĠKey": 4022,
      "https": 4023,
      "Ã¡x": 4024,
      "Ġanal": 4025,
      "imum": 4026,
      "ĠCarlos": 4027,
      "Ġcinco": 4028,
      "ĠAnsible": 4029,
      "ensions": 4030,
      "das": 4031,
      "Ġdific": 4032,
      "Tem": 4033,
      "Ġvolume": 4034,
      "Ġstream": 4035,
      "manager": 4036,
      "andid": 4037,
      "atar": 4038,
      "Module": 4039,
      "From": 4040,
      "usr": 4041,
      "Ġgente": 4042,
      "Ġfrente": 4043,
      "Integer": 4044,
      ".')": 4045,
      "Index": 4046,
      "anÃ§as": 4047,
      "Ġdisc": 4048,
      "ĠMic": 4049,
      "Ġunivers": 4050,
      "mer": 4051,
      "Pol": 4052,
      "tensor": 4053,
      "ĠTV": 4054,
      "Ġenv": 4055,
      "tmp": 4056,
      "udio": 4057,
      "Ġinitial": 4058,
      "Que": 4059,
      "View": 4060,
      "Ġerrors": 4061,
      "Ġins": 4062,
      "Ġvou": 4063,
      "Ġcomum": 4064,
      "Ã¡veis": 4065,
      "Ġinvest": 4066,
      "EC": 4067,
      "Ã¡g": 4068,
      "acionais": 4069,
      "UB": 4070,
      "]),": 4071,
      "ĠPedro": 4072,
      "Ġguerra": 4073,
      "amo": 4074,
      "ĠHe": 4075,
      "Âª": 4076,
      "ĠDo": 4077,
      "Per": 4078,
      "Py": 4079,
      "Ġviv": 4080,
      "Ġlogo": 4081,
      "tep": 4082,
      "ABILITY": 4083,
      "example": 4084,
      "Fr": 4085,
      "ĠAng": 4086,
      "Ġaproxim": 4087,
      "rito": 4088,
      "Ġbec": 4089,
      "ĠlÃŃn": 4090,
      "Ġcompet": 4091,
      "ossa": 4092,
      "Ġocup": 4093,
      "ĠHo": 4094,
      "lambda": 4095,
      "Ġfig": 4096,
      "tax": 4097,
      "umb": 4098,
      "Por": 4099,
      "prec": 4100,
      "pli": 4101,
      "State": 4102,
      "redit": 4103,
      "ĠEd": 4104,
      "umer": 4105,
      "entic": 4106,
      "Ġdeste": 4107,
      "most": 4108,
      "Ġautom": 4109,
      "win": 4110,
      "ĠRep": 4111,
      "jam": 4112,
      "Eu": 4113,
      "handle": 4114,
      "boa": 4115,
      "Ġjunho": 4116,
      "batch": 4117,
      "Rec": 4118,
      "ifest": 4119,
      "Ġcarg": 4120,
      "iblio": 4121,
      "Ġalc": 4122,
      "Ġcorrespon": 4123,
      "Ġcentro": 4124,
      "ĠBl": 4125,
      "ÃŃveis": 4126,
      "ilt": 4127,
      "ĠCopa": 4128,
      "Ġnovembro": 4129,
      "hes": 4130,
      "style": 4131,
      "Ġalso": 4132,
      "(-": 4133,
      "Ġhoras": 4134,
      "Option": 4135,
      "Ġparameter": 4136,
      "quia": 4137,
      "Ġvoid": 4138,
      "UE": 4139,
      "Ġmostr": 4140,
      "Ġagosto": 4141,
      "non": 4142,
      "Ġtimeout": 4143,
      "Ġoptional": 4144,
      "Ġdever": 4145,
      "Ġabril": 4146,
      "ABLE": 4147,
      "dot": 4148,
      "unter": 4149,
      "Result": 4150,
      "Ġsystem": 4151,
      ".)": 4152,
      "Ġlanguage": 4153,
      "fin": 4154,
      "ivamente": 4155,
      "ATA": 4156,
      "Ġher": 4157,
      "ĠMel": 4158,
      "ĠĠĠĠĠĠĠĠĠĠĠĠĠĠĠĠĠĠĠĠĠĠĠĠĠĠĠĠĠĠ": 4159,
      "Ġmer": 4160,
      "****************": 4161,
      "eira": 4162,
      "enta": 4163,
      "ensÃ£o": 4164,
      "Ġrei": 4165,
      "bre": 4166,
      "Ġsi": 4167,
      "exc": 4168,
      "Ġrio": 4169,
      "........": 4170,
      "Ġbeen": 4171,
      "ĠString": 4172,
      "Ġnav": 4173,
      "tree": 4174,
      "zone": 4175,
      "setup": 4176,
      "ved": 4177,
      "Ġremove": 4178,
      "indows": 4179,
      "oreign": 4180,
      "Ġestad": 4181,
      "ĠNew": 4182,
      "Ġnoite": 4183,
      "Ġdireito": 4184,
      "ĠEr": 4185,
      "Ġcomerc": 4186,
      "ĠLis": 4187,
      "rada": 4188,
      "urg": 4189,
      "Ġfavor": 4190,
      "ĠEste": 4191,
      "Ġsearch": 4192,
      "offset": 4193,
      "sql": 4194,
      "oro": 4195,
      "cket": 4196,
      "Ġxml": 4197,
      "Ġincluindo": 4198,
      "thread": 4199,
      "Ġcomput": 4200,
      "ley": 4201,
      "Ġcreated": 4202,
      "Ġcompr": 4203,
      "ensa": 4204,
      "mac": 4205,
      "tos": 4206,
      "FAULT": 4207,
      "RA": 4208,
      "]['": 4209,
      "step": 4210,
      "ĠFrancis": 4211,
      "Ġcapac": 4212,
      "Ġproblemas": 4213,
      "Ns": 4214,
      "////////////////": 4215,
      "Demografia": 4216,
      "Ent": 4217,
      ")\"": 4218,
      "pi": 4219,
      "TYPE": 4220,
      "Ġescola": 4221,
      "Ġempre": 4222,
      "Ġperce": 4223,
      "ĠpaÃŃses": 4224,
      "ĠUser": 4225,
      "Ġace": 4226,
      "Ġfollowing": 4227,
      "ormente": 4228,
      "Fl": 4229,
      "FOR": 4230,
      "ĠInc": 4231,
      "ugh": 4232,
      "Ġpot": 4233,
      "Ġclube": 4234,
      "ĠFranÃ§a": 4235,
      "arnings": 4236,
      "ĠFer": 4237,
      "Ġvem": 4238,
      "Ġapi": 4239,
      "struct": 4240,
      "board": 4241,
      "pria": 4242,
      "istro": 4243,
      "EXT": 4244,
      "ultura": 4245,
      "except": 4246,
      "Ġunicode": 4247,
      "Ġdictionary": 4248,
      "Ġmort": 4249,
      "ĠFoundation": 4250,
      "Ġaument": 4251,
      "wise": 4252,
      "Ġrender": 4253,
      "idx": 4254,
      "abilidade": 4255,
      "ĠAb": 4256,
      "Ġlocalizada": 4257,
      "Ġ<=": 4258,
      "assertEquals": 4259,
      "Ġliber": 4260,
      "handler": 4261,
      "ilha": 4262,
      "SP": 4263,
      "ored": 4264,
      "ĠmilhÃµes": 4265,
      "enos": 4266,
      "methods": 4267,
      "ways": 4268,
      ")[": 4269,
      "Ġbet": 4270,
      "This": 4271,
      "><": 4272,
      "ĠPorto": 4273,
      "ural": 4274,
      "into": 4275,
      "Ġcompar": 4276,
      "logger": 4277,
      "Ġ'__": 4278,
      "ping": 4279,
      "TE": 4280,
      "arr": 4281,
      "Ġ--------": 4282,
      "Ġexecut": 4283,
      "profile": 4284,
      "aw": 4285,
      "dition": 4286,
      "SC": 4287,
      "kw": 4288,
      "sv": 4289,
      "QL": 4290,
      "omes": 4291,
      "vision": 4292,
      "Ãºblico": 4293,
      "ĠNorte": 4294,
      "Ġexplic": 4295,
      "andard": 4296,
      "vas": 4297,
      "display": 4298,
      "addr": 4299,
      "Factory": 4300,
      ".*": 4301,
      "napsho": 4302,
      "Ġorigem": 4303,
      "solute": 4304,
      ").__": 4305,
      "Ġaccess": 4306,
      "Ġnull": 4307,
      "Ġids": 4308,
      "Ġjornal": 4309,
      "gle": 4310,
      "Ġrepresenta": 4311,
      "Ġdisplay": 4312,
      "Ġsei": 4313,
      "arem": 4314,
      "teriormente": 4315,
      "%(": 4316,
      "Ġjogos": 4317,
      "Ġhasattr": 4318,
      "Ġempty": 4319,
      "Sh": 4320,
      "Ro": 4321,
      "Ġenergia": 4322,
      "Ġalgu": 4323,
      "Ġbast": 4324,
      "Ġsaber": 4325,
      "Ġjunto": 4326,
      "Ġbin": 4327,
      "OO": 4328,
      "Ġ'<": 4329,
      "Ġital": 4330,
      "Ġlim": 4331,
      "dos": 4332,
      "ativos": 4333,
      "extend": 4334,
      "Ġobras": 4335,
      "Ġali": 4336,
      "ĠAND": 4337,
      "Str": 4338,
      "Ġganh": 4339,
      "Ã¢nico": 4340,
      "served": 4341,
      "ĠtÃŃtulo": 4342,
      "unction": 4343,
      "prop": 4344,
      "ouse": 4345,
      "Device": 4346,
      "ges": 4347,
      "enÃ§a": 4348,
      "Ġdesign": 4349,
      "Ġ'_": 4350,
      "Ġchanged": 4351,
      "Ġpropri": 4352,
      "left": 4353,
      "Ġdomain": 4354,
      "Ġemail": 4355,
      "Ġavailable": 4356,
      "job": 4357,
      "imas": 4358,
      "total": 4359,
      "anges": 4360,
      "Ġpontos": 4361,
      "maz": 4362,
      "manha": 4363,
      "login": 4364,
      "Ġcost": 4365,
      "oreignKey": 4366,
      "Ġutf": 4367,
      "Ġdecor": 4368,
      "PAT": 4369,
      "buffer": 4370,
      "fake": 4371,
      "ĠFree": 4372,
      "ĠMil": 4373,
      "Ġimplement": 4374,
      "Ġtemporada": 4375,
      "ron": 4376,
      "ivil": 4377,
      "IND": 4378,
      "Ġinsp": 4379,
      "ride": 4380,
      "ĠespÃ©cie": 4381,
      "full": 4382,
      "LIC": 4383,
      "irectory": 4384,
      "apa": 4385,
      "Ġfut": 4386,
      "Ġcoding": 4387,
      "uesa": 4388,
      "intes": 4389,
      "zer": 4390,
      "Ġindepend": 4391,
      "Um": 4392,
      "Ġhomens": 4393,
      "Ġequip": 4394,
      "Ġregistr": 4395,
      "ls": 4396,
      "Ġgrad": 4397,
      "stdout": 4398,
      "Ġperg": 4399,
      "ĠFre": 4400,
      "Ġeven": 4401,
      "Create": 4402,
      "orig": 4403,
      "Ġatu": 4404,
      "ĠSao": 4405,
      "Ġmeses": 4406,
      "ĠBu": 4407,
      "enu": 4408,
      "On": 4409,
      "CONF": 4410,
      "Client": 4411,
      "Ġ%(": 4412,
      "Ġalun": 4413,
      "Ġforte": 4414,
      ".-": 4415,
      "Ġult": 4416,
      "Filmes": 4417,
      "MS": 4418,
      "Ġvariable": 4419,
      "Ġnatural": 4420,
      "Quer": 4421,
      "ĠcomeÃ§ou": 4422,
      "ĠNOT": 4423,
      "dated": 4424,
      "classes": 4425,
      "Ġtenho": 4426,
      "Ġtex": 4427,
      "Ġdirig": 4428,
      "Ġpalavras": 4429,
      "Ġassum": 4430,
      "Ġprimeiros": 4431,
      "Ġvari": 4432,
      "Ġaccount": 4433,
      "Ġcarreira": 4434,
      "categ": 4435,
      "ensidade": 4436,
      "ĠmarÃ§o": 4437,
      "Ġreconhec": 4438,
      "ĠSim": 4439,
      "Ġamigos": 4440,
      "=['": 4441,
      "ancia": 4442,
      "unicipal": 4443,
      "Ã³p": 4444,
      "ENSE": 4445,
      "Ġsocket": 4446,
      "axis": 4447,
      "Ġtab": 4448,
      "Ġprovided": 4449,
      "Ġ'--": 4450,
      "ĠJohn": 4451,
      "Ġfica": 4452,
      "vars": 4453,
      "Ġaxis": 4454,
      "Default": 4455,
      "Ġfilhos": 4456,
      "Parser": 4457,
      "ĠSua": 4458,
      "Ġdecis": 4459,
      "Ġcausa": 4460,
      "space": 4461,
      "uter": 4462,
      "Ġscal": 4463,
      "gue": 4464,
      "Ġvideo": 4465,
      "ĠMed": 4466,
      "head": 4467,
      "MM": 4468,
      "ĠURL": 4469,
      "Ġsabe": 4470,
      "NS": 4471,
      "\").": 4472,
      "iler": 4473,
      "auto": 4474,
      "Ġvenc": 4475,
      "dec": 4476,
      "HTTP": 4477,
      "cert": 4478,
      "ĠLo": 4479,
      "Para": 4480,
      "inta": 4481,
      "GET": 4482,
      "Ġdisput": 4483,
      "Ġparticular": 4484,
      "Ġsl": 4485,
      "ĠArg": 4486,
      "Ã©tr": 4487,
      "Ġdown": 4488,
      "ĠprovÃŃncia": 4489,
      "Ġtwo": 4490,
      "Ġmaiores": 4491,
      "Pre": 4492,
      "ĠComp": 4493,
      "rand": 4494,
      "Ġmodo": 4495,
      "Ġdur": 4496,
      "]+": 4497,
      "arios": 4498,
      "chema": 4499,
      "And": 4500,
      "Ġfosse": 4501,
      "Ġfull": 4502,
      "ibilidade": 4503,
      "ĠLisboa": 4504,
      "ĠSol": 4505,
      "Ġweb": 4506,
      "ĠMon": 4507,
      "Ġmodify": 4508,
      "Port": 4509,
      "Ġinterface": 4510,
      "ĠPe": 4511,
      "Dec": 4512,
      "help": 4513,
      "BU": 4514,
      "Ġviol": 4515,
      "Car": 4516,
      "Ġchange": 4517,
      "Ġtoc": 4518,
      "iteral": 4519,
      "initial": 4520,
      "wd": 4521,
      "Ġretr": 4522,
      "position": 4523,
      "mary": 4524,
      "ĠespÃ©cies": 4525,
      "FAFAFA": 4526,
      "Ġexample": 4527,
      "Ġmovimento": 4528,
      "Pos": 4529,
      "Ġconfiguration": 4530,
      "ĠParam": 4531,
      "Ġagr": 4532,
      "Ã´nia": 4533,
      "icais": 4534,
      "ĠPaul": 4535,
      "Ġestou": 4536,
      "Ġord": 4537,
      "case": 4538,
      "una": 4539,
      "ĠAmÃ©rica": 4540,
      "Ġidade": 4541,
      "conds": 4542,
      "Ġapresenta": 4543,
      "Content": 4544,
      "Dele": 4545,
      "izadas": 4546,
      "Ġmeus": 4547,
      "record": 4548,
      "ĠGer": 4549,
      "Mar": 4550,
      "Ã©n": 4551,
      "Ġposit": 4552,
      "ĠrelaÃ§Ã£o": 4553,
      "ayload": 4554,
      "Ġcultur": 4555,
      "Ġfacil": 4556,
      "Hel": 4557,
      "center": 4558,
      "ĠSa": 4559,
      "Ġstruct": 4560,
      "Ref": 4561,
      "Ġmaneira": 4562,
      "Ġsec": 4563,
      "ocr": 4564,
      "Ġprepar": 4565,
      "ĠDire": 4566,
      "Ġsrc": 4567,
      "Ġlike": 4568,
      "isc": 4569,
      "variable": 4570,
      "ĠSec": 4571,
      "icoes": 4572,
      "Ġdesse": 4573,
      "ks": 4574,
      "ĠMat": 4575,
      "(['": 4576,
      "Ġperm": 4577,
      "Ġfase": 4578,
      "eder": 4579,
      "ĠEuropa": 4580,
      "unique": 4581,
      "adeira": 4582,
      "Ġfazendo": 4583,
      "Action": 4584,
      "ĠOut": 4585,
      "skip": 4586,
      "Ġsegur": 4587,
      "ERR": 4588,
      "inhas": 4589,
      "Ġren": 4590,
      "til": 4591,
      "ĠpolÃŃtica": 4592,
      "~~~~": 4593,
      "ernel": 4594,
      "orge": 4595,
      "Ġcrit": 4596,
      "uÃªs": 4597,
      "tras": 4598,
      "Ġdup": 4599,
      "NO": 4600,
      "Ġacredit": 4601,
      "Ġencoding": 4602,
      "greg": 4603,
      "ancas": 4604,
      "Ġsomente": 4605,
      "stats": 4606,
      "Ġcient": 4607,
      "Ġdiffer": 4608,
      "witch": 4609,
      "Ġwant": 4610,
      "Ġtenha": 4611,
      "Ġcalled": 4612,
      "abil": 4613,
      "Ġlarg": 4614,
      "usa": 4615,
      "ĠtÃ©cn": 4616,
      "ĠDec": 4617,
      "callback": 4618,
      "TypeId": 4619,
      "Ġboa": 4620,
      "ĠDO": 4621,
      "Ġelas": 4622,
      "uda": 4623,
      "tags": 4624,
      "ĠSanto": 4625,
      "Ġfree": 4626,
      "partamento": 4627,
      "Mas": 4628,
      "late": 4629,
      "Ġlinha": 4630,
      ":]": 4631,
      "rule": 4632,
      "Ġgl": 4633,
      "AGE": 4634,
      "icon": 4635,
      "Ġnow": 4636,
      "Ġpod": 4637,
      "Ġsend": 4638,
      "Ġfalar": 4639,
      "Ġkeys": 4640,
      "iddle": 4641,
      "policy": 4642,
      "HistÃ³ria": 4643,
      "else": 4644,
      "Ġdiversas": 4645,
      "Ġfort": 4646,
      "ĠReino": 4647,
      "ĠtÃªm": 4648,
      "ATION": 4649,
      "Ġrespe": 4650,
      "Ġprocur": 4651,
      "ĠAo": 4652,
      "layer": 4653,
      "Ġcobertos": 4654,
      "ffix": 4655,
      "Ġrecebeu": 4656,
      "ĠMag": 4657,
      "hell": 4658,
      "Run": 4659,
      "Â°": 4660,
      "Ġigre": 4661,
      "Ġbytes": 4662,
      "Ġdessa": 4663,
      "ambÃ©m": 4664,
      ":%": 4665,
      "ius": 4666,
      "Ġmass": 4667,
      "Ġestilo": 4668,
      "Sele": 4669,
      "bb": 4670,
      "Ġterms": 4671,
      "Callback": 4672,
      "\"])": 4673,
      "hy": 4674,
      "Ġhandle": 4675,
      "ki": 4676,
      "Ġolhos": 4677,
      "ween": 4678,
      "Ġvend": 4679,
      "parameters": 4680,
      "Ġtax": 4681,
      "Ġdatabase": 4682,
      "Packet": 4683,
      "Ġscript": 4684,
      "Ġdelete": 4685,
      "ĠMy": 4686,
      "Ġmont": 4687,
      "tf": 4688,
      "iqu": 4689,
      "Ġpresente": 4690,
      "vez": 4691,
      "Ġsociedade": 4692,
      "Ġluz": 4693,
      "Ġfalse": 4694,
      "idden": 4695,
      "vious": 4696,
      "ĠCreate": 4697,
      "ĠWARRANTIES": 4698,
      "Ġsupport": 4699,
      "ÃŃg": 4700,
      "ĠFern": 4701,
      "Ġdeclar": 4702,
      "encao": 4703,
      "Ġnovamente": 4704,
      "Ġcampo": 4705,
      "ĠAlemanha": 4706,
      "rb": 4707,
      "CC": 4708,
      "ĠcrÃŃt": 4709,
      "uthor": 4710,
      "driver": 4711,
      "Ġdecid": 4712,
      "hether": 4713,
      "ĠEss": 4714,
      "MP": 4715,
      "ForeignKey": 4716,
      "cat": 4717,
      "scope": 4718,
      "Command": 4719,
      "unittest": 4720,
      "Ġalong": 4721,
      "ĠIsso": 4722,
      "Ġfalta": 4723,
      "decode": 4724,
      "rid": 4725,
      "UD": 4726,
      "Ġhora": 4727,
      "Map": 4728,
      "anal": 4729,
      "Ġmodelo": 4730,
      "jas": 4731,
      "Ġtypes": 4732,
      "ĠList": 4733,
      "Iter": 4734,
      "Ġintegr": 4735,
      "Ġdiversos": 4736,
      "hi": 4737,
      "Ã¼": 4738,
      "Ġpad": 4739,
      "Ġpassar": 4740,
      "clean": 4741,
      "Ġtemper": 4742,
      "ndia": 4743,
      "ĠLET": 4744,
      "Ã´nio": 4745,
      "Ġsemana": 4746,
      "Ġreun": 4747,
      "interface": 4748,
      "ĠArgs": 4749,
      "Ġmant": 4750,
      "Ġcoracao": 4751,
      "'})": 4752,
      "like": 4753,
      "straint": 4754,
      "Ġmulheres": 4755,
      "Ġdenom": 4756,
      "kens": 4757,
      "seg": 4758,
      "Ġinici": 4759,
      "Ġunittest": 4760,
      "ini": 4761,
      "acia": 4762,
      "criptor": 4763,
      "Ã©tica": 4764,
      "cell": 4765,
      "KEY": 4766,
      "ĠGal": 4767,
      "Ġcat": 4768,
      "Ġfevereiro": 4769,
      "render": 4770,
      "ĠUS": 4771,
      "Ġbecause": 4772,
      "Ġgeralmente": 4773,
      "ination": 4774,
      "Ġchegou": 4775,
      "Ġconhecida": 4776,
      "extra": 4777,
      "Imple": 4778,
      "Ġconsum": 4779,
      "Ġseguintes": 4780,
      "Context": 4781,
      "Ġmembros": 4782,
      "js": 4783,
      "Ġdistrito": 4784,
      "uiu": 4785,
      "ĠXV": 4786,
      "Ġinforma": 4787,
      "ĠĠčĊ": 4788,
      "Ġitems": 4789,
      "Nao": 4790,
      "Manager": 4791,
      "compute": 4792,
      "Es": 4793,
      "ĠĠĠĠĠĠĠĠĠĠĠĠĠĠĠĠĠĠĠĠĠĠĠĠĠĠĠĠĠĠĠĠĠ": 4794,
      "iencia": 4795,
      "Ġcenso": 4796,
      "ars": 4797,
      "tas": 4798,
      "Ġeletr": 4799,
      "delta": 4800,
      "attributes": 4801,
      "suc": 4802,
      "ĠFrancisco": 4803,
      "ĠLETTER": 4804,
      "VAL": 4805,
      "Ġcirc": 4806,
      "Ġtensorflow": 4807,
      "Ġarte": 4808,
      "Ġating": 4809,
      "izou": 4810,
      "Ġ\"\"": 4811,
      "omas": 4812,
      "bran": 4813,
      "Ã©g": 4814,
      "Ġvariables": 4815,
      "repr": 4816,
      "Ġmand": 4817,
      "Ġsubst": 4818,
      "')],": 4819,
      "contrib": 4820,
      "ĠpÃºblico": 4821,
      "esar": 4822,
      "ĠMundial": 4823,
      "Ġestavam": 4824,
      "include": 4825,
      "buf": 4826,
      "ĠAlg": 4827,
      "Ġgeometry": 4828,
      "report": 4829,
      "global": 4830,
      "roller": 4831,
      "Ġmaterial": 4832,
      "Ġcamp": 4833,
      "DS": 4834,
      "Ġlider": 4835,
      "Jo": 4836,
      "Ġfont": 4837,
      "ĠDom": 4838,
      "napshot": 4839,
      "public": 4840,
      "Ġattributes": 4841,
      "uir": 4842,
      "ĠPART": 4843,
      "ĠOb": 4844,
      "Ġaplic": 4845,
      "Ġpalavra": 4846,
      "Ġjo": 4847,
      "Ġcharacter": 4848,
      "Ġacomp": 4849,
      "Ġthey": 4850,
      "Ġadap": 4851,
      "inaÃ§Ã£o": 4852,
      "Ġcrist": 4853,
      "nos": 4854,
      "ÃŃsticas": 4855,
      "Ġhash": 4856,
      "Ġsuccess": 4857,
      "Ġcaminho": 4858,
      "SON": 4859,
      "ĠAPI": 4860,
      "arm": 4861,
      "ionais": 4862,
      "ĠMet": 4863,
      "Ġfra": 4864,
      "sort": 4865,
      "Widget": 4866,
      "Ġnovas": 4867,
      "ĠPRO": 4868,
      "Ġexiste": 4869,
      "BA": 4870,
      "WAR": 4871,
      "ĠtelevisÃ£o": 4872,
      "Segundo": 4873,
      "Ġconjunto": 4874,
      ",'": 4875,
      "Ġliter": 4876,
      "Ġbrasileira": 4877,
      "Ġacima": 4878,
      "HA": 4879,
      "ialog": 4880,
      "Ġauto": 4881,
      "Ġdr": 4882,
      "cola": 4883,
      "Ġespir": 4884,
      "ĠGL": 4885,
      "ĠversÃ£o": 4886,
      "ason": 4887,
      "ĠSub": 4888,
      "encial": 4889,
      "/>": 4890,
      "Line": 4891,
      "zip": 4892,
      "iet": 4893,
      "allow": 4894,
      "encias": 4895,
      "ferÃªncias": 4896,
      "opt": 4897,
      "ĠEsta": 4898,
      "Down": 4899,
      "CK": 4900,
      "ĠBase": 4901,
      "ĠVol": 4902,
      "Ġchamada": 4903,
      "Ġbal": 4904,
      "fit": 4905,
      "Tests": 4906,
      "ĠCur": 4907,
      "Ġthem": 4908,
      "ĠCampeonato": 4909,
      "ĠDepois": 4910,
      "andas": 4911,
      "Ġhistoria": 4912,
      "mall": 4913,
      "!!!": 4914,
      "ASS": 4915,
      "hs": 4916,
      "ĠVersion": 4917,
      "irs": 4918,
      "Ġminutos": 4919,
      "install": 4920,
      "rough": 4921,
      "Ġpriv": 4922,
      "Ġsurg": 4923,
      "ĠCent": 4924,
      "li": 4925,
      "Ġgraph": 4926,
      "Ac": 4927,
      "Ġreceived": 4928,
      "Ġcollection": 4929,
      "Ġpassed": 4930,
      "serial": 4931,
      "Input": 4932,
      "okie": 4933,
      "Ġsede": 4934,
      "Service": 4935,
      "ĠMart": 4936,
      "ei": 4937,
      "ĠMal": 4938,
      "ĠLib": 4939,
      "rate": 4940,
      "Server": 4941,
      "ĠOption": 4942,
      "ĠWill": 4943,
      "Ġserial": 4944,
      "Ġviz": 4945,
      "itura": 4946,
      "Ġraw": 4947,
      "alidade": 4948,
      "ttp": 4949,
      "Ġreport": 4950,
      "rs": 4951,
      "insert": 4952,
      "Ġanun": 4953,
      "Ġai": 4954,
      "ĠIP": 4955,
      "unicode": 4956,
      "deu": 4957,
      "Output": 4958,
      "Ġcidades": 4959,
      "Ġmark": 4960,
      "Ġindivid": 4961,
      "Ġfeliz": 4962,
      "Ġuseful": 4963,
      "/%": 4964,
      "cast": 4965,
      "ĠconstruÃ§Ã£o": 4966,
      "Como": 4967,
      "ximo": 4968,
      "ines": 4969,
      "Mem": 4970,
      "primary": 4971,
      "orias": 4972,
      "Ġpec": 4973,
      "Ġactual": 4974,
      "features": 4975,
      "Ġdivid": 4976,
      "Ġalguem": 4977,
      "cido": 4978,
      "ULAR": 4979,
      "With": 4980,
      "Ġjob": 4981,
      "annot": 4982,
      "ditional": 4983,
      "Ġepis": 4984,
      "udes": 4985,
      "Ġoffset": 4986,
      "vironment": 4987,
      "Ġflor": 4988,
      "Ġansible": 4989,
      "Ġresultado": 4990,
      "dado": 4991,
      "ĠName": 4992,
      "Ġreceb": 4993,
      "Ġcomplex": 4994,
      "#!": 4995,
      "ĠnÃŃvel": 4996,
      "Ġcustom": 4997,
      "ĠInstit": 4998,
      "ump": 4999,
      "lat": 5000,
      "Ġnovos": 5001,
      "validate": 5002,
      "normal": 5003,
      "ended": 5004,
      "Ġpoderia": 5005,
      "ĠTODO": 5006,
      "Ġzip": 5007,
      "FL": 5008,
      "ground": 5009,
      "Ġlei": 5010,
      "Fe": 5011,
      "Ġstatic": 5012,
      "ational": 5013,
      "imes": 5014,
      "platform": 5015,
      "stead": 5016,
      "icaÃ§Ãµes": 5017,
      "bind": 5018,
      "Ġdisco": 5019,
      "></": 5020,
      "ĠCristo": 5021,
      "uÃŃdo": 5022,
      "alt": 5023,
      "ĠHTTP": 5024,
      "Ġcandid": 5025,
      "NESS": 5026,
      "Connection": 5027,
      "Ġviver": 5028,
      "usto": 5029,
      "ayout": 5030,
      "Ġatividades": 5031,
      "Build": 5032,
      "CP": 5033,
      "Ġmulti": 5034,
      "_,": 5035,
      "dou": 5036,
      "Ġideia": 5037,
      "ĠSuper": 5038,
      "Ã¢nt": 5039,
      "Ġtrain": 5040,
      "Ġgost": 5041,
      "ĠMu": 5042,
      "ĠĠĠĠĠĠĠĠĠĠĠĠĠĠĠĠĠĠĠĠĠĠĠĠĠĠĠĠĠĠĠĠĠĠ": 5043,
      "Ġimper": 5044,
      "ham": 5045,
      "Ġbastante": 5046,
      "Ã¡ss": 5047,
      "ĠlÃŃngua": 5048,
      "Sec": 5049,
      "Ġassist": 5050,
      "known": 5051,
      "ĠHen": 5052,
      "Ġcorrect": 5053,
      "Ġdebug": 5054,
      "ters": 5055,
      "Ġpackage": 5056,
      "Ġconstit": 5057,
      "widget": 5058,
      "Ġobtain": 5059,
      "ĠAlÃ©m": 5060,
      "Ġmetadata": 5061,
      "taÃ§Ã£o": 5062,
      "modules": 5063,
      "points": 5064,
      "assertFalse": 5065,
      "DIR": 5066,
      "################################################################": 5067,
      "ordin": 5068,
      "Mock": 5069,
      "sample": 5070,
      "ĠSeu": 5071,
      "Ġdemais": 5072,
      "keep": 5073,
      "Ġlocation": 5074,
      "used": 5075,
      "Ġgrupos": 5076,
      "Ġestudo": 5077,
      "Ãªmio": 5078,
      "Ag": 5079,
      "Ġmetros": 5080,
      "Ġ&',": 5081,
      "Ġcompre": 5082,
      "ME": 5083,
      "gp": 5084,
      "argv": 5085,
      "curity": 5086,
      "ĠInter": 5087,
      "ogos": 5088,
      "ACK": 5089,
      "Ġrule": 5090,
      "Ã³rias": 5091,
      "Ġtree": 5092,
      "lig": 5093,
      "proto": 5094,
      "Ġusar": 5095,
      "Ġvoces": 5096,
      "ĠFederal": 5097,
      "Ġcallback": 5098,
      "Ġbrit": 5099,
      "Ġsetup": 5100,
      "Ġreligios": 5101,
      "untime": 5102,
      "Ġframe": 5103,
      "Ġimportantes": 5104,
      "ĠImport": 5105,
      "abc": 5106,
      "uff": 5107,
      "acos": 5108,
      "ploy": 5109,
      "ĠTerra": 5110,
      "Ġperd": 5111,
      "illa": 5112,
      "Ġapoio": 5113,
      "ĠSenhor": 5114,
      "ĠTur": 5115,
      "ĠmÃ©dia": 5116,
      "Ġpersonagem": 5117,
      "iciais": 5118,
      "ĠMER": 5119,
      "({'": 5120,
      "Ġsave": 5121,
      "Ġ?": 5122,
      "POSE": 5123,
      "tom": 5124,
      "Ġmath": 5125,
      "ĠFIT": 5126,
      "inham": 5127,
      "ĠPARTIC": 5128,
      "Ġrede": 5129,
      "ificar": 5130,
      "izes": 5131,
      "ĠIl": 5132,
      "Ġfregues": 5133,
      "fici": 5134,
      "Ġobjetivo": 5135,
      "Ġespa": 5136,
      "Ġstyle": 5137,
      "pesar": 5138,
      "encoding": 5139,
      "Ġdeixar": 5140,
      "Ġdestr": 5141,
      "ĠMac": 5142,
      "amil": 5143,
      "words": 5144,
      "Ġexerc": 5145,
      "Ġsure": 5146,
      "almente": 5147,
      "Ġsentido": 5148,
      "Ġfamos": 5149,
      "Ġusado": 5150,
      "eded": 5151,
      "Ġcultura": 5152,
      "riz": 5153,
      "Ġrevel": 5154,
      "Ãºde": 5155,
      "CHANT": 5156,
      "Instance": 5157,
      "brow": 5158,
      "Ġ\"/": 5159,
      "Ġconquist": 5160,
      "ĠSch": 5161,
      "ponents": 5162,
      "Ãī": 5163,
      "Ġbat": 5164,
      "multi": 5165,
      "UA": 5166,
      "inf": 5167,
      "height": 5168,
      "Ġalguma": 5169,
      "Ġenvolv": 5170,
      "Ġhand": 5171,
      "opts": 5172,
      "enÃ§Ã£o": 5173,
      "ĠInd": 5174,
      "ka": 5175,
      "Box": 5176,
      "estr": 5177,
      "Ġpermissions": 5178,
      "Ass": 5179,
      "Mult": 5180,
      "ife": 5181,
      "ĠPUR": 5182,
      "plugin": 5183,
      "lear": 5184,
      "Ã©rcito": 5185,
      "ĠSte": 5186,
      "Ġverbose": 5187,
      "OG": 5188,
      "adem": 5189,
      "Ġencont": 5190,
      "ĠRom": 5191,
      "unc": 5192,
      "acts": 5193,
      "las": 5194,
      "Frame": 5195,
      "Ġdispon": 5196,
      "resso": 5197,
      "ĠlÃŃ": 5198,
      "ĠImp": 5199,
      "lan": 5200,
      "Ġfoto": 5201,
      "rog": 5202,
      "ĠTra": 5203,
      "ĠRepÃºblica": 5204,
      "ips": 5205,
      "Ġcop": 5206,
      "Ġ</": 5207,
      "Ġsection": 5208,
      "ĠFITNESS": 5209,
      "ĠFe": 5210,
      "Ġplan": 5211,
      "ĠHar": 5212,
      "Ġinstr": 5213,
      "Ġprodutos": 5214,
      "columns": 5215,
      "ĠPURPOSE": 5216,
      "guas": 5217,
      "package": 5218,
      "Ġalter": 5219,
      "Ġsubstit": 5220,
      "ĠPARTICULAR": 5221,
      "Ġmelh": 5222,
      "Ġinstead": 5223,
      "Ġinc": 5224,
      "igu": 5225,
      "HER": 5226,
      "osp": 5227,
      "Invalid": 5228,
      "obre": 5229,
      "ĠJap": 5230,
      "ually": 5231,
      "Ġvisit": 5232,
      "ĠOpen": 5233,
      "Ġtrop": 5234,
      "Ġtexto": 5235,
      "ÃŃde": 5236,
      "ditions": 5237,
      "IF": 5238,
      "Ġwidth": 5239,
      "called": 5240,
      "Ġmarker": 5241,
      "ĠĠĠĠĠĠĠĠĠĠĠĠĠĠĠĠĠĠĠĠĠĠĠĠĠĠĠĠĠĠĠĠĠĠĠĠĠĠĠ": 5242,
      "----------------------------------------------------------------": 5243,
      "added": 5244,
      "ilar": 5245,
      "Ġmethods": 5246,
      "Ġelev": 5247,
      "Query": 5248,
      "enci": 5249,
      "Ġordem": 5250,
      "Ġesses": 5251,
      "ĠrÃ¡": 5252,
      "Ġneste": 5253,
      "grama": 5254,
      "Ġdoesn": 5255,
      "eline": 5256,
      "weight": 5257,
      "cesa": 5258,
      "Ġpassa": 5259,
      "erto": 5260,
      "Ġalta": 5261,
      "ĠMor": 5262,
      "Meta": 5263,
      "Ġris": 5264,
      "Ġinstit": 5265,
      "CHANTABILITY": 5266,
      "dep": 5267,
      "Ġ'',": 5268,
      "GC": 5269,
      "Ġfis": 5270,
      "idae": 5271,
      "Cur": 5272,
      "Ġinicio": 5273,
      "ĠChar": 5274,
      "ged": 5275,
      "ĠlanÃ§ado": 5276,
      "SD": 5277,
      "Ġmercado": 5278,
      "Ġsql": 5279,
      "dt": 5280,
      "atureza": 5281,
      "Ġredor": 5282,
      "year": 5283,
      "Ġprefer": 5284,
      "span": 5285,
      "labels": 5286,
      "attribute": 5287,
      "INT": 5288,
      "Ġconvert": 5289,
      "Ġchoices": 5290,
      "Ġpac": 5291,
      "posiÃ§Ã£o": 5292,
      "ested": 5293,
      "oco": 5294,
      "Oper": 5295,
      "Ġblog": 5296,
      "ĠNote": 5297,
      "ValueError": 5298,
      "ogr": 5299,
      "Ġipv": 5300,
      "uldade": 5301,
      "Ġinteg": 5302,
      "Ġ):": 5303,
      "ala": 5304,
      "estre": 5305,
      "jos": 5306,
      "stderr": 5307,
      "Point": 5308,
      "creen": 5309,
      "erta": 5310,
      "ificado": 5311,
      "Ġbetween": 5312,
      "ĠSu": 5313,
      "ÃŃl": 5314,
      "izando": 5315,
      "ĠReturn": 5316,
      "children": 5317,
      "Ġcapacidade": 5318,
      "rv": 5319,
      "Ġdifferent": 5320,
      "\",\"": 5321,
      "ĠSem": 5322,
      "fa": 5323,
      "diff": 5324,
      "Ġdesenvol": 5325,
      "Source": 5326,
      "rim": 5327,
      "Ġdeles": 5328,
      "umes": 5329,
      "Ġfornec": 5330,
      "Variable": 5331,
      "Read": 5332,
      "site": 5333,
      "Of": 5334,
      "iform": 5335,
      "ĠPat": 5336,
      "endeu": 5337,
      "Ġresid": 5338,
      "tuple": 5339,
      "samples": 5340,
      "Ã¢nia": 5341,
      "Ġbair": 5342,
      "desc": 5343,
      "ressÃ£o": 5344,
      "Ġtermo": 5345,
      "raises": 5346,
      "Ġconsiderado": 5347,
      "Ġessas": 5348,
      "PATH": 5349,
      "amar": 5350,
      "STR": 5351,
      "Ġdensidade": 5352,
      "Ġconvers": 5353,
      "Ġamo": 5354,
      "Ġbatch": 5355,
      "sole": 5356,
      "edit": 5357,
      "aves": 5358,
      "ĠAssim": 5359,
      "AND": 5360,
      "Ã³t": 5361,
      "proxy": 5362,
      "We": 5363,
      "END": 5364,
      "Ġclasses": 5365,
      "ĠSp": 5366,
      "Ġing": 5367,
      "ĠAf": 5368,
      "Ġ[[": 5369,
      "Simple": 5370,
      "Header": 5371,
      "igas": 5372,
      "Ġutils": 5373,
      "ĠMERCHANTABILITY": 5374,
      "Ġajuda": 5375,
      "Valid": 5376,
      "Ġquero": 5377,
      "olo": 5378,
      "Ġperform": 5379,
      "Ġskip": 5380,
      "ĠSilva": 5381,
      "ĠCa": 5382,
      "Ġright": 5383,
      "Ġdisable": 5384,
      "Ġcuid": 5385,
      "#!/": 5386,
      ")*": 5387,
      "Int": 5388,
      "Ġfailed": 5389,
      "Ġchannel": 5390,
      "Table": 5391,
      "ĠDav": 5392,
      "Ġcontrole": 5393,
      "Ġproduct": 5394,
      "olean": 5395,
      "'][": 5396,
      "loads": 5397,
      "Ġexisting": 5398,
      "comment": 5399,
      "invalid": 5400,
      "rique": 5401,
      "\"}": 5402,
      "particle": 5403,
      "ets": 5404,
      "ĠPres": 5405,
      "Ġproblema": 5406,
      "actions": 5407,
      "SER": 5408,
      "Ġredis": 5409,
      "Ġlook": 5410,
      "ats": 5411,
      "-%": 5412,
      "Ġlivre": 5413,
      "unas": 5414,
      "Ġpublished": 5415,
      "\");": 5416,
      "ĠporÃ©m": 5417,
      "TEST": 5418,
      "Ġlut": 5419,
      "Ġhip": 5420,
      "Ġempresas": 5421,
      "Ġbas": 5422,
      "ured": 5423,
      "Ġexpect": 5424,
      "ĠTypeError": 5425,
      "properties": 5426,
      "assertIs": 5427,
      "Ġencontrar": 5428,
      "ely": 5429,
      "Ġinicial": 5430,
      "\"\\": 5431,
      "Ġusername": 5432,
      "grid": 5433,
      "Version": 5434,
      "Ġseis": 5435,
      "Ġraz": 5436,
      "ĠTrans": 5437,
      "glÃªs": 5438,
      "Ã¢ne": 5439,
      "Ġregular": 5440,
      "Ġlista": 5441,
      "Ġsorted": 5442,
      "matrix": 5443,
      "__,": 5444,
      "bos": 5445,
      "bora": 5446,
      "Gener": 5447,
      "Ġqualidade": 5448,
      "Ġauthor": 5449,
      "Ġcombin": 5450,
      "ÃŃstica": 5451,
      "Ġcapaz": 5452,
      "Number": 5453,
      "Arg": 5454,
      "lass": 5455,
      "Ġtmp": 5456,
      "Ġorient": 5457,
      "Part": 5458,
      "`,": 5459,
      "Ġfemin": 5460,
      "Ġalto": 5461,
      "Ġdela": 5462,
      "Ã¡tico": 5463,
      "storage": 5464,
      "Ġpeg": 5465,
      "als": 5466,
      "Auto": 5467,
      "ĠApache": 5468,
      "Ġselect": 5469,
      "Ġfilha": 5470,
      "Ġcel": 5471,
      "Ġaquele": 5472,
      "serialize": 5473,
      "Ġnodes": 5474,
      "attrs": 5475,
      "ĠArt": 5476,
      "ĠEsc": 5477,
      "DEFAULT": 5478,
      "Ġanimais": 5479,
      "ĠCruz": 5480,
      "()[": 5481,
      "dates": 5482,
      "ea": 5483,
      "Ġwait": 5484,
      "Ġsat": 5485,
      "Ã£es": 5486,
      "ĠpolÃŃtico": 5487,
      "Ġfilmes": 5488,
      "ĠCentro": 5489,
      "control": 5490,
      "Ġdiferente": 5491,
      "Ġmatrix": 5492,
      "IME": 5493,
      "Ġexib": 5494,
      "ĠprÃ³prio": 5495,
      "Ġobrig": 5496,
      "document": 5497,
      "Ġpertenc": 5498,
      "mm": 5499,
      "AY": 5500,
      "sing": 5501,
      "Ġafirm": 5502,
      "icional": 5503,
      "Ġapplic": 5504,
      "ability": 5505,
      "ĠhistÃ³r": 5506,
      "aug": 5507,
      "ather": 5508,
      "quires": 5509,
      "mean": 5510,
      "pose": 5511,
      "Ġcomuna": 5512,
      "collection": 5513,
      "socket": 5514,
      "Foi": 5515,
      "atalha": 5516,
      "pliance": 5517,
      "Ġvolt": 5518,
      "fetch": 5519,
      "ung": 5520,
      "container": 5521,
      "di": 5522,
      "ĠÃ¡reas": 5523,
      "Ġdemon": 5524,
      "term": 5525,
      "binary": 5526,
      "Ġchegar": 5527,
      "backend": 5528,
      "Ġmens": 5529,
      "Ġ[])": 5530,
      "ĠReal": 5531,
      "ĠSantos": 5532,
      "Ġexists": 5533,
      "Ġstep": 5534,
      "ĠSan": 5535,
      "ĠportuguÃªs": 5536,
      "('\\": 5537,
      "Ġampl": 5538,
      "rist": 5539,
      "Ġaz": 5540,
      "inguem": 5541,
      "enho": 5542,
      "Ġfab": 5543,
      "Ġdefinit": 5544,
      "Ġdefined": 5545,
      "Ġlabels": 5546,
      "ontade": 5547,
      "GE": 5548,
      "ĠconstruÃŃ": 5549,
      "diction": 5550,
      "ĠUse": 5551,
      "Ġproperty": 5552,
      "oolean": 5553,
      "achine": 5554,
      "jar": 5555,
      "ÃŃcia": 5556,
      "Process": 5557,
      "ReferÃªncias": 5558,
      "istemas": 5559,
      "Ġpret": 5560,
      "vista": 5561,
      "writ": 5562,
      "Ġbuffer": 5563,
      "Ġsuperior": 5564,
      "Ġoperation": 5565,
      "ocup": 5566,
      "Ġce": 5567,
      "Ġagre": 5568,
      "Ġcomunidade": 5569,
      "Ġorigin": 5570,
      "ĠMundo": 5571,
      "how": 5572,
      "ĠEX": 5573,
      "Ġilha": 5574,
      "Ġwriting": 5575,
      "Ġreceber": 5576,
      "leep": 5577,
      "Ġsemelh": 5578,
      "Ġpers": 5579,
      "voluÃ§Ã£o": 5580,
      "commit": 5581,
      "(__": 5582,
      "ĠsetUp": 5583,
      "ession": 5584,
      "ĠRem": 5585,
      "encies": 5586,
      ".'": 5587,
      "Ġtransfer": 5588,
      "angue": 5589,
      "release": 5590,
      "ĠDr": 5591,
      "Ġflags": 5592,
      "ãģ": 5593,
      "Ġcorrespond": 5594,
      "Ġabout": 5595,
      "Ġcerto": 5596,
      "Ġapesar": 5597,
      "orith": 5598,
      "Ġamar": 5599,
      "Ġimagem": 5600,
      "Image": 5601,
      "ÃŃnio": 5602,
      "math": 5603,
      "Ġserem": 5604,
      "Ġstack": 5605,
      "Ġhtml": 5606,
      "icia": 5607,
      "Ġpratic": 5608,
      "Buffer": 5609,
      "Ġast": 5610,
      "Ġperto": 5611,
      "Ġinstall": 5612,
      "Ġinteger": 5613,
      "cam": 5614,
      "curr": 5615,
      "Ã¡c": 5616,
      "schema": 5617,
      "Ġencontra": 5618,
      "Doc": 5619,
      "ĠfÃŃs": 5620,
      "ĠBen": 5621,
      "Ġamigo": 5622,
      "Ġpolit": 5623,
      "short": 5624,
      "custom": 5625,
      "ky": 5626,
      "bed": 5627,
      "ĠpossÃŃvel": 5628,
      "Uma": 5629,
      "ĠHer": 5630,
      "rf": 5631,
      "Checker": 5632,
      "Ġpassado": 5633,
      "Ġsecond": 5634,
      "inputs": 5635,
      "ericana": 5636,
      "Ġpessoal": 5637,
      "acy": 5638,
      "ibility": 5639,
      "Ġreduz": 5640,
      "sec": 5641,
      "Ġhandler": 5642,
      "Ġnamespace": 5643,
      "Ġprofessor": 5644,
      "ĠVoce": 5645,
      "Ġabaixo": 5646,
      "ĠOS": 5647,
      "Ġmost": 5648,
      "Ġacesso": 5649,
      "Ġ\"'": 5650,
      "ĠAlex": 5651,
      "nal": 5652,
      "hist": 5653,
      "ĠRE": 5654,
      "aqu": 5655,
      "messages": 5656,
      "Ġsequ": 5657,
      "ĠRod": 5658,
      "Ġsignifica": 5659,
      "Ġgarant": 5660,
      "hand": 5661,
      ")',": 5662,
      "SO": 5663,
      "window": 5664,
      "ney": 5665,
      "Ġcontaining": 5666,
      "Ġcriar": 5667,
      "upload": 5668,
      "curso": 5669,
      "Ġtraz": 5670,
      "track": 5671,
      "ony": 5672,
      "hook": 5673,
      "Ġcole": 5674,
      "ĠposiÃ§Ã£o": 5675,
      "End": 5676,
      "PT": 5677,
      "Ġeval": 5678,
      "Ġrealmente": 5679,
      "bound": 5680,
      "CS": 5681,
      "ĠNO": 5682,
      "Ġvoz": 5683,
      "yntax": 5684,
      "Ġsociais": 5685,
      "andom": 5686,
      "entity": 5687,
      "video": 5688,
      "Ġteria": 5689,
      "button": 5690,
      "async": 5691,
      "Ġprotocol": 5692,
      "={'": 5693,
      "Ã¢nica": 5694,
      "Tensor": 5695,
      "Ġclean": 5696,
      "estas": 5697,
      "Page": 5698,
      "________________": 5699,
      "/',": 5700,
      "License": 5701,
      "Ġaliment": 5702,
      "ĠPh": 5703,
      "isÃ£o": 5704,
      "gon": 5705,
      "application": 5706,
      "Ġadded": 5707,
      "enabled": 5708,
      "ĠData": 5709,
      "Ġtam": 5710,
      "Ġhttps": 5711,
      "Ġmeta": 5712,
      "raÃ§Ã£o": 5713,
      "Ġsac": 5714,
      "Ġvest": 5715,
      "Ġmenor": 5716,
      "DIT": 5717,
      "ERROR": 5718,
      "Ġuint": 5719,
      "Ġsai": 5720,
      "API": 5721,
      "Ã³nio": 5722,
      "dirname": 5723,
      ".',": 5724,
      "ROM": 5725,
      "Ġenumer": 5726,
      "Ã£e": 5727,
      "norm": 5728,
      "telo": 5729,
      "oken": 5730,
      "Ġambiente": 5731,
      "PS": 5732,
      "iddleware": 5733,
      "avelmente": 5734,
      "DF": 5735,
      "New": 5736,
      "Ġmelhores": 5737,
      "Ġ\".": 5738,
      "Ġbaixo": 5739,
      "ĠBer": 5740,
      "ibil": 5741,
      "wards": 5742,
      "__)": 5743,
      "nas": 5744,
      "FO": 5745,
      "Ġstop": 5746,
      "ĠWARRANTY": 5747,
      "Ġgenerate": 5748,
      "PC": 5749,
      "dential": 5750,
      "aceback": 5751,
      "Ġconver": 5752,
      "Ġsus": 5753,
      "Ġflag": 5754,
      "Ġinterior": 5755,
      "Ġlivros": 5756,
      "ĠTri": 5757,
      "apache": 5758,
      "Found": 5759,
      "ĠSpec": 5760,
      "udent": 5761,
      "Ġmask": 5762,
      "ĠHel": 5763,
      "Ġevento": 5764,
      "clear": 5765,
      "IGHT": 5766,
      "Ġbon": 5767,
      "Ġpossivel": 5768,
      "ĠJust": 5769,
      ")'": 5770,
      "arda": 5771,
      "Ġcart": 5772,
      "irar": 5773,
      "users": 5774,
      "Ġconhecimento": 5775,
      "sentry": 5776,
      "Ġurb": 5777,
      "plac": 5778,
      "Ġnatureza": 5779,
      "double": 5780,
      "Ġpopulacional": 5781,
      "Ġata": 5782,
      "sele": 5783,
      "LOG": 5784,
      "Ġnesse": 5785,
      "Ġaumento": 5786,
      "Ġgol": 5787,
      "aterra": 5788,
      "(**": 5789,
      "ĠNos": 5790,
      "rows": 5791,
      "Ġalunos": 5792,
      "{{": 5793,
      "Ġmanter": 5794,
      "PORT": 5795,
      "RES": 5796,
      "sw": 5797,
      "Ġtrein": 5798,
      "Ġconfl": 5799,
      "fd": 5800,
      "AV": 5801,
      "side": 5802,
      "Ġ_(\"": 5803,
      "Ġalways": 5804,
      "atas": 5805,
      "ĠÃºltimo": 5806,
      "feitos": 5807,
      "Ġjur": 5808,
      "Ġdinheiro": 5809,
      "many": 5810,
      "ĠParis": 5811,
      "aturais": 5812,
      "ĠSE": 5813,
      "Ġstrings": 5814,
      "Ġaproximadamente": 5815,
      "Ġvontade": 5816,
      "Ġmanifest": 5817,
      "lhe": 5818,
      "ĠinglÃªs": 5819,
      "classmethod": 5820,
      "ĠDu": 5821,
      "Ġigreja": 5822,
      "Ġthese": 5823,
      "Met": 5824,
      "Geografia": 5825,
      "Ġinclus": 5826,
      "onia": 5827,
      "Ġattrs": 5828,
      "IRE": 5829,
      "alias": 5830,
      "gh": 5831,
      "Ġfunctions": 5832,
      "Len": 5833,
      "ĠCOM": 5834,
      "Ġfeita": 5835,
      "Ġcasos": 5836,
      "Ġsplit": 5837,
      "ĠediÃ§Ã£o": 5838,
      "aga": 5839,
      "eria": 5840,
      "cursor": 5841,
      "isl": 5842,
      "Rem": 5843,
      "Ġcommands": 5844,
      "Ġtemos": 5845,
      "none": 5846,
      "OK": 5847,
      "factory": 5848,
      "iveram": 5849,
      "metric": 5850,
      "ĠQt": 5851,
      "SION": 5852,
      "Ã¡cio": 5853,
      "Status": 5854,
      "Ġaltern": 5855,
      "ĠcriaÃ§Ã£o": 5856,
      "edi": 5857,
      "google": 5858,
      "Ġeq": 5859,
      "Ġdedic": 5860,
      "ĠTom": 5861,
      "lint": 5862,
      "Ġgreg": 5863,
      "sd": 5864,
      "Ġintro": 5865,
      "(\\": 5866,
      "Ġrecursos": 5867,
      "Ġpadr": 5868,
      "Ġjogador": 5869,
      "ĠPra": 5870,
      "Auth": 5871,
      "Spec": 5872,
      "Ġnossos": 5873,
      "ogrÃ¡f": 5874,
      "cÃªs": 5875,
      "arran": 5876,
      "dig": 5877,
      "Ġlocais": 5878,
      "ivesse": 5879,
      "Ġsexo": 5880,
      "wrap": 5881,
      "anhia": 5882,
      "Ġsequence": 5883,
      "Ġator": 5884,
      "Ġfake": 5885,
      "ĠKIND": 5886,
      "expr": 5887,
      "lim": 5888,
      "align": 5889,
      "glaterra": 5890,
      "Ġpen": 5891,
      "ĠInternacional": 5892,
      "Implemented": 5893,
      "IE": 5894,
      "ires": 5895,
      "unicÃŃpios": 5896,
      "ĠĠĠĠĠĠĠĠĠĠĠĠĠĠĠĠĠĠĠĠĠĠĠĠĠĠĠĠĠĠĠĠĠĠĠĠ": 5897,
      "Ġasc": 5898,
      "Code": 5899,
      "Ġlayer": 5900,
      "Ġfundament": 5901,
      "Ġantiga": 5902,
      "category": 5903,
      "Ġdf": 5904,
      "ĠClube": 5905,
      "Ġmarg": 5906,
      "Ġpick": 5907,
      "Ġprecisa": 5908,
      "Do": 5909,
      "ti": 5910,
      "ifi": 5911,
      "Ġcontains": 5912,
      "Ġtinham": 5913,
      "Ġprim": 5914,
      "++": 5915,
      "Ġown": 5916,
      "Ġ((": 5917,
      "ures": 5918,
      "ĠVila": 5919,
      "ĠDefault": 5920,
      "Ġmigr": 5921,
      "Ġpin": 5922,
      "ĠMais": 5923,
      "Ġjovem": 5924,
      "Ġsimple": 5925,
      "ĠTor": 5926,
      "Function": 5927,
      "Ãºb": 5928,
      "Ġextr": 5929,
      "protocol": 5930,
      "ĠEles": 5931,
      "Ġmic": 5932,
      "portun": 5933,
      "III": 5934,
      "Ġmuita": 5935,
      "ĠBro": 5936,
      "Ġespanh": 5937,
      "atalog": 5938,
      "stract": 5939,
      "seq": 5940,
      "ĠJu": 5941,
      "Format": 5942,
      "jec": 5943,
      "ĠMus": 5944,
      "ĠFutebol": 5945,
      "Ġtags": 5946,
      "ĠXX": 5947,
      "Ġbinary": 5948,
      "vs": 5949,
      "ĠCasa": 5950,
      "Ġcentral": 5951,
      "upo": 5952,
      "mel": 5953,
      "tor": 5954,
      "ACT": 5955,
      "Ġacabou": 5956,
      "Ġmedo": 5957,
      "ental": 5958,
      "ined": 5959,
      "Ġqueria": 5960,
      "NE": 5961,
      "alh": 5962,
      "Ġmove": 5963,
      "ĠFr": 5964,
      "ÃŃb": 5965,
      "lobo": 5966,
      "ĠParameters": 5967,
      "avail": 5968,
      "Ã£s": 5969,
      "POST": 5970,
      "sur": 5971,
      "Ġabove": 5972,
      "Ġisto": 5973,
      "Start": 5974,
      "Comp": 5975,
      "Dir": 5976,
      "warning": 5977,
      "enum": 5978,
      "berg": 5979,
      "apar": 5980,
      "Ġinfer": 5981,
      "ĉčĊ": 5982,
      "namespace": 5983,
      "ugins": 5984,
      "Ġleft": 5985,
      "Ġhistor": 5986,
      "Ġreverse": 5987,
      "nn": 5988,
      "Ġ\",": 5989,
      "Ġparec": 5990,
      "Ġwidget": 5991,
      "Ġluta": 5992,
      "Stream": 5993,
      "Ġimag": 5994,
      "(\"%": 5995,
      "ĠHist": 5996,
      "bur": 5997,
      "ĠApÃ³s": 5998,
      "ĠDi": 5999,
      "Ġcarro": 6000,
      "Ġmist": 6001,
      "ĠPO": 6002,
      "Ġlem": 6003,
      "Ġ::": 6004,
      "Ġestrutura": 6005,
      "icidade": 6006,
      "Ġarquite": 6007,
      "Ġpatch": 6008,
      "ĠInglaterra": 6009,
      "ĠRa": 6010,
      "ATIN": 6011,
      "precated": 6012,
      "pattern": 6013,
      "Returns": 6014,
      "[:,": 6015,
      "SET": 6016,
      "score": 6017,
      "Ġbusca": 6018,
      "ĠBran": 6019,
      "Enc": 6020,
      "orar": 6021,
      "Ġajudar": 6022,
      "Ġpartes": 6023,
      "pb": 6024,
      "ixin": 6025,
      "download": 6026,
      "ired": 6027,
      "Ġnorm": 6028,
      "enca": 6029,
      "ulaÃ§Ã£o": 6030,
      "Ġensino": 6031,
      "Ġusu": 6032,
      "aceae": 6033,
      "frica": 6034,
      "ĠHol": 6035,
      "Ġvm": 6036,
      "convert": 6037,
      "Ġorg": 6038,
      "Ġmae": 6039,
      "ĠLuc": 6040,
      "transform": 6041,
      "Array": 6042,
      "Ġnenhum": 6043,
      "och": 6044,
      "Property": 6045,
      "ĠDem": 6046,
      "directory": 6047,
      "Ġantigo": 6048,
      "ĠterritÃ³rio": 6049,
      "__':": 6050,
      "sim": 6051,
      "Ġdete": 6052,
      "DateTime": 6053,
      "lev": 6054,
      "ania": 6055,
      "Ġaprend": 6056,
      "MB": 6057,
      "Ġveloc": 6058,
      "Ġprev": 6059,
      "ĠAR": 6060,
      "Ġcompat": 6061,
      "eza": 6062,
      "ĠOrdem": 6063,
      "ĠCab": 6064,
      "Ġwhether": 6065,
      "Ġlingu": 6066,
      "IntegerField": 6067,
      "peÃ£o": 6068,
      "Ġignore": 6069,
      "('%": 6070,
      "Ġdestac": 6071,
      "img": 6072,
      "Ġpropried": 6073,
      "Ġfreguesia": 6074,
      "Ġhou": 6075,
      "Ġfronte": 6076,
      "Ġapplicable": 6077,
      "LICENSE": 6078,
      "Ġdistrib": 6079,
      "success": 6080,
      "Ġwarnings": 6081,
      "Ġabsolute": 6082,
      "atica": 6083,
      "FILE": 6084,
      "Ġeuro": 6085,
      "Ġprofissional": 6086,
      "Ġatriz": 6087,
      "Ġvista": 6088,
      "Ġhomen": 6089,
      "Ġinteress": 6090,
      "Min": 6091,
      "Ġforce": 6092,
      "Ġformas": 6093,
      "loop": 6094,
      "adding": 6095,
      "Ġrevista": 6096,
      "ille": 6097,
      "ĠDiv": 6098,
      "FORM": 6099,
      "tool": 6100,
      "LECT": 6101,
      "Ġ})": 6102,
      "('-": 6103,
      "([[": 6104,
      ">'": 6105,
      "Ġsupported": 6106,
      "Ġcell": 6107,
      "IAL": 6108,
      "ĠLicensed": 6109,
      "ĠImportError": 6110,
      "Ġredistribute": 6111,
      "ĠEntre": 6112,
      "Ġ[(": 6113,
      "Ġmessages": 6114,
      "Ġpequena": 6115,
      "scale": 6116,
      "ĠLei": 6117,
      "Ġdevem": 6118,
      "gt": 6119,
      "Ġposition": 6120,
      "USER": 6121,
      "ĠIr": 6122,
      "COL": 6123,
      "master": 6124,
      "ÃŃcios": 6125,
      "Ġplugin": 6126,
      "isted": 6127,
      "qrt": 6128,
      "mento": 6129,
      "MunicÃŃpios": 6130,
      "Ġmundial": 6131,
      "Ġconseguiu": 6132,
      "ĠLATIN": 6133,
      "Quando": 6134,
      "ared": 6135,
      "ĠMc": 6136,
      "ĠPrime": 6137,
      "ev": 6138,
      "fic": 6139,
      "ĠDurante": 6140,
      "Ġretorn": 6141,
      "ĠInstituto": 6142,
      "cut": 6143,
      "Ġ}}": 6144,
      "aml": 6145,
      "Ġexig": 6146,
      "idad": 6147,
      "Ġpreocup": 6148,
      "Ġfar": 6149,
      "Ġ----": 6150,
      "Ġmultiple": 6151,
      "ithub": 6152,
      "Ġpk": 6153,
      "ĠÃŃ": 6154,
      "ĠÃºnico": 6155,
      "constant": 6156,
      "Ġcinema": 6157,
      "Ġenumerate": 6158,
      "ĠTambÃ©m": 6159,
      "Ġprior": 6160,
      "Ġhope": 6161,
      "Ġpreciso": 6162,
      "Ġstore": 6163,
      "Ġcursor": 6164,
      "Naturais": 6165,
      "Ġelementos": 6166,
      "Ã³rios": 6167,
      "Ġcoment": 6168,
      "Ġjap": 6169,
      "ĠST": 6170,
      "Ġnesta": 6171,
      "Ġestudos": 6172,
      "rado": 6173,
      "Ġfeature": 6174,
      "iso": 6175,
      "Ġeng": 6176,
      "Ġquadr": 6177,
      "ioso": 6178,
      "Child": 6179,
      "Ġportuguesa": 6180,
      "comm": 6181,
      "ianos": 6182,
      "Ġmusica": 6183,
      "ĠSenh": 6184,
      "ĠItÃ¡lia": 6185,
      "ĠespaÃ§o": 6186,
      "Ġgest": 6187,
      "Ġtais": 6188,
      "plates": 6189,
      "ĠeconÃ´m": 6190,
      "Ġach": 6191,
      "Ġcommon": 6192,
      "variables": 6193,
      "engine": 6194,
      "ĠfunÃ§Ã£o": 6195,
      "ĠEssa": 6196,
      "Ġrunning": 6197,
      "gate": 6198,
      "paths": 6199,
      "Ġcores": 6200,
      "zeros": 6201,
      "CR": 6202,
      "Ġseguir": 6203,
      "ragment": 6204,
      "Ã¶": 6205,
      "Ġdescrit": 6206,
      "ORD": 6207,
      "ĠConfig": 6208,
      "ĠBAS": 6209,
      "Ġrap": 6210,
      "orithm": 6211,
      "Ġdeixou": 6212,
      "Ġinvalid": 6213,
      "aste": 6214,
      "Ġmarca": 6215,
      "Color": 6216,
      "resol": 6217,
      "Ġenfrent": 6218,
      "entre": 6219,
      "ives": 6220,
      "estival": 6221,
      "Ġaband": 6222,
      "Ġtornar": 6223,
      "IGN": 6224,
      "Ġfuturo": 6225,
      "just": 6226,
      "tures": 6227,
      "ĠChe": 6228,
      "quote": 6229,
      "font": 6230,
      "Ġwo": 6231,
      "Ġremote": 6232,
      "tz": 6233,
      "ĠMunicipal": 6234,
      "ĠNossa": 6235,
      "Ġcomment": 6236,
      "]])": 6237,
      "asc": 6238,
      "Ġour": 6239,
      "ixt": 6240,
      "Ġexistem": 6241,
      "ĠBel": 6242,
      "ivity": 6243,
      "iografia": 6244,
      "css": 6245,
      "Ġtres": 6246,
      "Ġatt": 6247,
      "uÃŃs": 6248,
      "Ġfrancesa": 6249,
      "Ġsaud": 6250,
      "=_": 6251,
      "Ġops": 6252,
      "Am": 6253,
      "bad": 6254,
      ">\\": 6255,
      "Ġcruz": 6256,
      "teza": 6257,
      "verbose": 6258,
      "ĠĠĠĠĠĠĠĠĠĠĠĠĠĠĠĠĠĠĠĠĠĠĠĠĠĠĠĠĠĠĠĠĠĠĠĠĠ": 6259,
      "cher": 6260,
      "ĠUnido": 6261,
      "Ġespecialmente": 6262,
      "ĠLond": 6263,
      "Ã¢mara": 6264,
      "symbol": 6265,
      "']),": 6266,
      "ucao": 6267,
      "Ã©dia": 6268,
      "Socket": 6269,
      "Ġalign": 6270,
      "ĠFaz": 6271,
      "ĠPass": 6272,
      "Ġbeing": 6273,
      "entina": 6274,
      "created": 6275,
      "gnu": 6276,
      "Ġ;": 6277,
      "compat": 6278,
      "tains": 6279,
      "Ġsymbol": 6280,
      "export": 6281,
      "thing": 6282,
      "WN": 6283,
      "Ġmusical": 6284,
      "Ġexport": 6285,
      "voice": 6286,
      "exceptions": 6287,
      "Ġunique": 6288,
      "ÃŃdu": 6289,
      "ĠDan": 6290,
      "Ġpesquisa": 6291,
      "ICE": 6292,
      "ĠEra": 6293,
      "FC": 6294,
      "assertIn": 6295,
      "ĠImpÃ©rio": 6296,
      "timestamp": 6297,
      "BN": 6298,
      "Ġrespeito": 6299,
      ")\\": 6300,
      "Ġpi": 6301,
      "Ġtempos": 6302,
      "enn": 6303,
      "ulares": 6304,
      "ĠfrancÃªs": 6305,
      "atÃ³rio": 6306,
      "Ġ----------": 6307,
      "Ġdiretor": 6308,
      "ĠSenhora": 6309,
      "cial": 6310,
      "Ġparece": 6311,
      "Ġtorna": 6312,
      "Ġlaw": 6313,
      "untry": 6314,
      "ĠUniÃ£o": 6315,
      "Ġwarran": 6316,
      "Ġinternacional": 6317,
      "redo": 6318,
      "disk": 6319,
      "ĠMA": 6320,
      "language": 6321,
      "ĠDon": 6322,
      "Ġpersonagens": 6323,
      "hose": 6324,
      "ĠAtl": 6325,
      "Ġcriado": 6326,
      "Ext": 6327,
      "uo": 6328,
      "Qt": 6329,
      "')),": 6330,
      "ĠUp": 6331,
      "]*": 6332,
      "Ġincor": 6333,
      "Ġrespect": 6334,
      "Ġdireitos": 6335,
      "remote": 6336,
      "ĠEN": 6337,
      "Ġcomercial": 6338,
      "Ġemiss": 6339,
      "Ġagua": 6340,
      "'re": 6341,
      "folder": 6342,
      "DITIONS": 6343,
      "Ġhumano": 6344,
      "Ġcontainer": 6345,
      "Ġfamilia": 6346,
      "imer": 6347,
      "Ġcompliance": 6348,
      "Ãªnero": 6349,
      "Ġtipos": 6350,
      "IZE": 6351,
      "git": 6352,
      "teriores": 6353,
      "plos": 6354,
      "Ġagain": 6355,
      "usage": 6356,
      "Ġplatform": 6357,
      "Ho": 6358,
      "uito": 6359,
      "Ã¡st": 6360,
      "Ġcomport": 6361,
      "marker": 6362,
      "Ġlevar": 6363,
      "cloud": 6364,
      "ĠMad": 6365,
      "Ġsort": 6366,
      "Ġexclus": 6367,
      "ificate": 6368,
      "Ġcrescimento": 6369,
      "aver": 6370,
      "cfg": 6371,
      "vals": 6372,
      "ĠÃį": 6373,
      "Ġboth": 6374,
      "Ġsym": 6375,
      "ĠUnless": 6376,
      "Ġchunk": 6377,
      "Ġeurope": 6378,
      "licos": 6379,
      "sporte": 6380,
      "_.": 6381,
      "Ġcort": 6382,
      "Ġreb": 6383,
      "iba": 6384,
      "ĠVir": 6385,
      "losed": 6386,
      "Ġanterior": 6387,
      "Ġwhat": 6388,
      "Ġstdout": 6389,
      "ctx": 6390,
      "Ġatividade": 6391,
      "Ġfinally": 6392,
      "INTER": 6393,
      "Ã©tico": 6394,
      "Futebol": 6395,
      "Ġconsequ": 6396,
      "sep": 6397,
      "iases": 6398,
      "Ġterceiro": 6399,
      "cd": 6400,
      "Ġoportun": 6401,
      "Iterator": 6402,
      "Ġlibrary": 6403,
      "itt": 6404,
      "Ġwarranty": 6405,
      "Ġhon": 6406,
      "duÃ§Ã£o": 6407,
      "Ġlevou": 6408,
      "Ġplay": 6409,
      "Ġacompanh": 6410,
      "Ġtit": 6411,
      "ĠSele": 6412,
      "ĠLiv": 6413,
      "reshold": 6414,
      "ĠUnited": 6415,
      "Ġfazem": 6416,
      "nan": 6417,
      "Ant": 6418,
      "osof": 6419,
      "Ġlemb": 6420,
      "registr": 6421,
      "Button": 6422,
      "ota": 6423,
      "Ã¡ticas": 6424,
      "Ġagreed": 6425,
      "Cal": 6426,
      "enÃ§as": 6427,
      "cb": 6428,
      "Ġbene": 6429,
      "uÃŃda": 6430,
      "ĠNotImplemented": 6431,
      "Ġsix": 6432,
      "ĠStr": 6433,
      "para": 6434,
      "Ġtrabalhar": 6435,
      "Ġcic": 6436,
      "aixas": 6437,
      "Ġgoverning": 6438,
      "ĠBASIS": 6439,
      "ĠCONDITIONS": 6440,
      "Ġaltura": 6441,
      ")])": 6442,
      "Ġevery": 6443,
      "Ġsubprocess": 6444,
      "ipeline": 6445,
      "logo": 6446,
      "ĠFile": 6447,
      "Ġlimitations": 6448,
      "Ġdocumentation": 6449,
      "views": 6450,
      "Ġadministrativa": 6451,
      "Ġpequeno": 6452,
      "BC": 6453,
      "Ġprest": 6454,
      "ĠIII": 6455,
      "feira": 6456,
      "If": 6457,
      "Ġinputs": 6458,
      "Ġemp": 6459,
      "FT": 6460,
      "ĠNet": 6461,
      "Ġplantas": 6462,
      "posa": 6463,
      "ĠCondado": 6464,
      "Ġplane": 6465,
      "metros": 6466,
      "Ġrequests": 6467,
      "Ġgan": 6468,
      "Ġarm": 6469,
      "inada": 6470,
      "Ġbound": 6471,
      "ĠMinas": 6472,
      "Ġmol": 6473,
      "ĠEdit": 6474,
      "MET": 6475,
      "UU": 6476,
      "ĠSegundo": 6477,
      "Ġcum": 6478,
      "indices": 6479,
      "egin": 6480,
      "Ġpylint": 6481,
      "undos": 6482,
      "Ġta": 6483,
      "Ġimpl": 6484,
      "faces": 6485,
      "operator": 6486,
      "Ġsil": 6487,
      "Ġquarto": 6488,
      "irma": 6489,
      "Ġconcent": 6490,
      "Ġquad": 6491,
      "Ġlon": 6492,
      "Ġestes": 6493,
      "iÃªncias": 6494,
      "Ġvalidate": 6495,
      "ixture": 6496,
      "ĠBan": 6497,
      "ĠDia": 6498,
      "Te": 6499,
      "Ġnam": 6500,
      "Ġresta": 6501,
      "quela": 6502,
      "Ġtrabalhos": 6503,
      "ision": 6504,
      "ĠforÃ§a": 6505,
      "home": 6506,
      "TV": 6507,
      "Block": 6508,
      "Ġganhou": 6509,
      "Me": 6510,
      "GR": 6511,
      "ĠForm": 6512,
      "Ġresist": 6513,
      "cluster": 6514,
      "Ġdesemp": 6515,
      "iki": 6516,
      "Ġescal": 6517,
      "Ġdor": 6518,
      "PER": 6519,
      "Ġade": 6520,
      "Ãºstr": 6521,
      "Boolean": 6522,
      "()))": 6523,
      "WARE": 6524,
      "els": 6525,
      "Ġ>',": 6526,
      "Ġpattern": 6527,
      "Ġcit": 6528,
      "ĠGar": 6529,
      "vos": 6530,
      "Ġbater": 6531,
      "Edit": 6532,
      "vido": 6533,
      "ĠMelhor": 6534,
      "Ġeconomia": 6535,
      "Ġdownload": 6536,
      "Ġbairro": 6537,
      "Ġaval": 6538,
      "Ġpacket": 6539,
      "Ġzero": 6540,
      "safe": 6541,
      "Ġpropor": 6542,
      "SH": 6543,
      "atom": 6544,
      "raft": 6545,
      "Ġrealidade": 6546,
      "Ġguitar": 6547,
      "itive": 6548,
      "ĠWindows": 6549,
      "ĠJose": 6550,
      "gria": 6551,
      "DATA": 6552,
      "agu": 6553,
      "Ġbi": 6554,
      "UTH": 6555,
      "Ġdiante": 6556,
      "ĠBah": 6557,
      "Ġninguem": 6558,
      "Ġfinance": 6559,
      "andro": 6560,
      "tempt": 6561,
      "lookup": 6562,
      "Ġje": 6563,
      "Ġshort": 6564,
      "Ġsecret": 6565,
      "Ġwould": 6566,
      "Ġbased": 6567,
      "rantes": 6568,
      "ĠJapÃ£o": 6569,
      "lang": 6570,
      "Ġquantidade": 6571,
      "acas": 6572,
      ":-": 6573,
      "Ġpaths": 6574,
      "Ġpan": 6575,
      "Ġcargo": 6576,
      "ĠPartido": 6577,
      "Ġschema": 6578,
      "Ġhid": 6579,
      "ĠÃºnica": 6580,
      "ĠGover": 6581,
      "Ġctx": 6582,
      "Ġvirtual": 6583,
      "ynam": 6584,
      "ĠRib": 6585,
      "ĠprÃ³pria": 6586,
      "Ġsolo": 6587,
      "peed": 6588,
      "ĠformaÃ§Ã£o": 6589,
      "Ġsistemas": 6590,
      "Ġelements": 6591,
      "Mode": 6592,
      "ĠmÃ¡": 6593,
      "ĠWhen": 6594,
      "ociaÃ§Ã£o": 6595,
      "Ġseguida": 6596,
      "Ġporta": 6597,
      "ĠGener": 6598,
      "Ġthrough": 6599,
      "dumps": 6600,
      "Ġtheir": 6601,
      "hav": 6602,
      "DR": 6603,
      "isf": 6604,
      "Ġcolon": 6605,
      "raise": 6606,
      "Ġpool": 6607,
      "Ġconditions": 6608,
      "Ġcannot": 6609,
      "Ġaqueles": 6610,
      "ĠEscola": 6611,
      "Ġway": 6612,
      "ĠregiÃµes": 6613,
      "generate": 6614,
      "Many": 6615,
      "ĠRel": 6616,
      "migr": 6617,
      "Write": 6618,
      "ONE": 6619,
      "Ġsince": 6620,
      "feature": 6621,
      "Ġdescre": 6622,
      "Label": 6623,
      "Ġatras": 6624,
      "feed": 6625,
      "mi": 6626,
      "Ġclose": 6627,
      "ULL": 6628,
      "ĠalcanÃ§": 6629,
      "ĠEduc": 6630,
      "duce": 6631,
      "Ã´nica": 6632,
      "onas": 6633,
      "uros": 6634,
      "ĠAttribute": 6635,
      "Ġveio": 6636,
      "ĠvocÃª": 6637,
      "ĠMuse": 6638,
      "()),": 6639,
      "Ġtema": 6640,
      "!!!!": 6641,
      "ology": 6642,
      "oras": 6643,
      "Ġwindow": 6644,
      "Ġcolumns": 6645,
      "provider": 6646,
      "XML": 6647,
      "repo": 6648,
      "reset": 6649,
      "]],": 6650,
      "sin": 6651,
      "ĠCat": 6652,
      "Bar": 6653,
      "Ġcos": 6654,
      "Ġapos": 6655,
      "forme": 6656,
      "Ġeventos": 6657,
      "Ġbyte": 6658,
      "Ġvivo": 6659,
      "Window": 6660,
      "Ġenvi": 6661,
      "loss": 6662,
      "Ġstd": 6663,
      "######": 6664,
      "ko": 6665,
      "Ġ_('": 6666,
      "Ġnaturais": 6667,
      "etas": 6668,
      "Ġgeneral": 6669,
      "OUT": 6670,
      "Link": 6671,
      "Ġcluster": 6672,
      "organ": 6673,
      "agent": 6674,
      "Ġambos": 6675,
      "cm": 6676,
      "ĠÃ³": 6677,
      "Ġrot": 6678,
      "gar": 6679,
      "lation": 6680,
      "igger": 6681,
      "Ġrelated": 6682,
      "Ġdimin": 6683,
      "ĠMont": 6684,
      "ĠLog": 6685,
      "akes": 6686,
      "ĠLeg": 6687,
      "ĠMes": 6688,
      "Method": 6689,
      "Ġdeb": 6690,
      "Ġinaug": 6691,
      "jor": 6692,
      "ĠCong": 6693,
      "Ġarch": 6694,
      "Ġpodemos": 6695,
      "ĠmÃ£e": 6696,
      "ĠJa": 6697,
      "inder": 6698,
      "dentials": 6699,
      "ĠAS": 6700,
      "Ġprob": 6701,
      "Ġcapit": 6702,
      "sequence": 6703,
      "Ġmetric": 6704,
      "Ġrevol": 6705,
      "posto": 6706,
      "'\"": 6707,
      "ĠdireÃ§Ã£o": 6708,
      "iser": 6709,
      "Ġ'')": 6710,
      "Ġatualmente": 6711,
      "aved": 6712,
      "until": 6713,
      "onta": 6714,
      "Ġassign": 6715,
      "Ġdemonstr": 6716,
      "Ġhumanos": 6717,
      "riu": 6718,
      "Ġsete": 6719,
      "Ġpartici": 6720,
      "Ġopts": 6721,
      "ĠÃºltima": 6722,
      "cy": 6723,
      "Ġ\"-": 6724,
      "ĠEsse": 6725,
      "chain": 6726,
      "Ġatraves": 6727,
      "Ġclaro": 6728,
      "ĠBrasileira": 6729,
      "hael": 6730,
      "ĠHTML": 6731,
      "enter": 6732,
      "Ġcivil": 6733,
      "Ġcalcul": 6734,
      "Ġplano": 6735,
      "ĠBrasileiro": 6736,
      "Ġtermos": 6737,
      "Ġcorre": 6738,
      "Ġkeep": 6739,
      "ĠCamp": 6740,
      "Ġgre": 6741,
      "ĠGoogle": 6742,
      "\"].": 6743,
      "ĠWilliam": 6744,
      "resp": 6745,
      ":\\": 6746,
      "ancel": 6747,
      "corr": 6748,
      "Ġadv": 6749,
      "Ġextension": 6750,
      "Ġpaz": 6751,
      "orno": 6752,
      "ĠSM": 6753,
      "Ġconhe": 6754,
      "atamente": 6755,
      "ĠCosta": 6756,
      "Ġcurso": 6757,
      "Ġmec": 6758,
      "enable": 6759,
      "Ġperder": 6760,
      "force": 6761,
      "ulado": 6762,
      "Ġolhar": 6763,
      "ĠserviÃ§os": 6764,
      "agement": 6765,
      "partner": 6766,
      "AutoField": 6767,
      "PAR": 6768,
      "Ġproc": 6769,
      "hostname": 6770,
      "endimento": 6771,
      "medi": 6772,
      "PRE": 6773,
      "loader": 6774,
      "ĠMake": 6775,
      "Ġcasamento": 6776,
      ")\",": 6777,
      "Ġinteresse": 6778,
      "Ġocas": 6779,
      "Ġnamed": 6780,
      "ĠĠĠĠĠĠĠĠĠĠĠĠĠĠĠĠĠĠĠĠĠĠĠĠĠĠĠĠĠĠĠĠĠĠĠĠĠĠ": 6781,
      "Ġrealizado": 6782,
      "tt": 6783,
      "tron": 6784,
      "Pass": 6785,
      "neg": 6786,
      "URE": 6787,
      "Ġaux": 6788,
      "cep": 6789,
      "false": 6790,
      "Ġaquela": 6791,
      "ĠSab": 6792,
      "nia": 6793,
      "Entry": 6794,
      "Ġsair": 6795,
      "Ġ%}": 6796,
      "xima": 6797,
      "Ġfoo": 6798,
      "pan": 6799,
      "Ġraio": 6800,
      "ÃŃnc": 6801,
      "Gui": 6802,
      "ĠBra": 6803,
      "Comunas": 6804,
      "press": 6805,
      "Ġprevious": 6806,
      "Ġferro": 6807,
      "americano": 6808,
      "Ġroup": 6809,
      "escape": 6810,
      "Filter": 6811,
      "Ġ\"<": 6812,
      "Ġprimeiras": 6813,
      "Ġtimes": 6814,
      "Ġindustr": 6815,
      "unta": 6816,
      "Ġpensar": 6817,
      "UC": 6818,
      "Ġconcl": 6819,
      "Ġplt": 6820,
      "Access": 6821,
      "oda": 6822,
      "ĠĠĠĠĠĠĠĠĠĠĠĠĠĠĠĠĠĠĠĠĠĠĠĠĠĠĠĠĠĠĠĠĠĠĠĠĠĠĠĠĠĠĠ": 6823,
      "Ġsig": 6824,
      "ĠsaÃºde": 6825,
      "filters": 6826,
      "this": 6827,
      "Column": 6828,
      "ĠYork": 6829,
      "idores": 6830,
      "Ġlicense": 6831,
      "uls": 6832,
      "Task": 6833,
      "Ġsentir": 6834,
      "Ġportanto": 6835,
      "ĠChina": 6836,
      "ĠPoss": 6837,
      "oth": 6838,
      "Ġnossas": 6839,
      "mk": 6840,
      "Ġtornando": 6841,
      "brar": 6842,
      "ĠCast": 6843,
      "ournal": 6844,
      "Ġpossible": 6845,
      "Vector": 6846,
      "Ġsust": 6847,
      "Ġigual": 6848,
      "media": 6849,
      "Ġteoria": 6850,
      "Protocol": 6851,
      "sig": 6852,
      "Ġconstructor": 6853,
      "Mixin": 6854,
      "warn": 6855,
      "Ġusando": 6856,
      "Ġenvironment": 6857,
      "Ġpartida": 6858,
      "Futebolistas": 6859,
      "ĉĉĉĉĉ": 6860,
      "Tree": 6861,
      "Ã¡b": 6862,
      "ĠNÃ£o": 6863,
      "otes": 6864,
      "Ġelim": 6865,
      "Cidades": 6866,
      "ĠinformaÃ§Ãµes": 6867,
      "sha": 6868,
      "AGS": 6869,
      "utable": 6870,
      "scal": 6871,
      "Ġrestr": 6872,
      "Ġreference": 6873,
      "Num": 6874,
      "lers": 6875,
      "Ġtrack": 6876,
      "alha": 6877,
      "LS": 6878,
      "Ġaprov": 6879,
      "numpy": 6880,
      "Ġcolet": 6881,
      "events": 6882,
      "Ġloop": 6883,
      "Ġexpression": 6884,
      "zero": 6885,
      "Ġurllib": 6886,
      "Ġpoucos": 6887,
      "Hash": 6888,
      "Ġconstant": 6889,
      "ison": 6890,
      "basic": 6891,
      "ĠSup": 6892,
      "ĠConsel": 6893,
      "Ġcomplet": 6894,
      "Ġvoltar": 6895,
      "Ġcontem": 6896,
      "ĠOper": 6897,
      "ega": 6898,
      "=',": 6899,
      "card": 6900,
      "Ġmascul": 6901,
      "OFT": 6902,
      "Graph": 6903,
      "eco": 6904,
      "utes": 6905,
      "lv": 6906,
      "ship": 6907,
      "Ġposso": 6908,
      "ubes": 6909,
      "Back": 6910,
      "Ġgenerated": 6911,
      "onio": 6912,
      "Ġjovens": 6913,
      "Ġcampanha": 6914,
      "Ġmedida": 6915,
      "Ġmissing": 6916,
      "ãĥ": 6917,
      "ĠAuthor": 6918,
      "Ġnecessidade": 6919,
      "Ġocorre": 6920,
      "heet": 6921,
      "ĠJe": 6922,
      "Ġconte": 6923,
      "Ġproduto": 6924,
      "ĠApesar": 6925,
      "iveis": 6926,
      "ostos": 6927,
      "Interface": 6928,
      "Ġtamanho": 6929,
      "Max": 6930,
      "Ġentrar": 6931,
      "Ãģ": 6932,
      "Ġescrever": 6933,
      "Ġdetal": 6934,
      "ĠBy": 6935,
      "scription": 6936,
      "ITE": 6937,
      "Token": 6938,
      "Ġcontents": 6939,
      "Ġrock": 6940,
      "Ġentrada": 6941,
      "como": 6942,
      "ecimento": 6943,
      "ĠKeyError": 6944,
      "fp": 6945,
      "flag": 6946,
      "Network": 6947,
      "Ġvive": 6948,
      "ĠelÃ©tr": 6949,
      "ĠFernando": 6950,
      "Ġspecify": 6951,
      "$',": 6952,
      "ĠMonte": 6953,
      "pytest": 6954,
      "'^": 6955,
      "Ġcategoria": 6956,
      "Warning": 6957,
      "ĠĠĠĠĠĠĠĠĠĠĠĠĠĠĠĠĠĠĠĠĠĠĠĠĠĠĠĠĠĠĠĠĠĠĠĠĠĠĠĠ": 6958,
      "Ġdivulg": 6959,
      "Logger": 6960,
      "ĠTal": 6961,
      "ĠAlexand": 6962,
      "ĠĠĠĠĠĠĠĠĠĠĠĠčĊ": 6963,
      "security": 6964,
      "onel": 6965,
      "Rel": 6966,
      "Ġrelative": 6967,
      "Ġfech": 6968,
      "Ġcabel": 6969,
      "simple": 6970,
      "Ġconsc": 6971,
      "Ġsuch": 6972,
      "umas": 6973,
      "cii": 6974,
      "PUT": 6975,
      "Ġdistribution": 6976,
      "Ġword": 6977,
      "alo": 6978,
      "almost": 6979,
      ")],": 6980,
      "Failed": 6981,
      "ĠGlobo": 6982,
      "ospital": 6983,
      "Ġefeito": 6984,
      "ĠLet": 6985,
      "Lista": 6986,
      "cord": 6987,
      "rece": 6988,
      "Ġcara": 6989,
      "rome": 6990,
      "Ġcp": 6991,
      "pository": 6992,
      "ness": 6993,
      "bun": 6994,
      "ĠOu": 6995,
      "ademia": 6996,
      "Ġesquer": 6997,
      "Ġsejam": 6998,
      "Ġconvid": 6999,
      "Ġ[('": 7000,
      "Ġlocalidades": 7001,
      "acar": 7002,
      "dirs": 7003,
      "Ġcould": 7004,
      "Ġidx": 7005,
      "Ġnenhuma": 7006,
      "acto": 7007,
      "Ġdone": 7008,
      "uler": 7009,
      "ili": 7010,
      "Ġturn": 7011,
      "entication": 7012,
      "Ġconfirm": 7013,
      "Ġvisto": 7014,
      "umin": 7015,
      "indent": 7016,
      "Ġ'#": 7017,
      "Ġmembro": 7018,
      "ĠXIX": 7019,
      "One": 7020,
      "Ġmassa": 7021,
      "BO": 7022,
      "porto": 7023,
      "Ġtecnologia": 7024,
      "STAT": 7025,
      "Ġbit": 7026,
      "ulation": 7027,
      "Ã©is": 7028,
      "ĠFROM": 7029,
      "ĠEv": 7030,
      "Ġfesta": 7031,
      "rg": 7032,
      "Ġdu": 7033,
      "cessed": 7034,
      "fc": 7035,
      "Ab": 7036,
      "Ġarr": 7037,
      "ench": 7038,
      "Ġ\"--": 7039,
      "Ġasync": 7040,
      "ĠLOG": 7041,
      "ĠWorld": 7042,
      "ĠFlor": 7043,
      "Ġom": 7044,
      "LL": 7045,
      "interval": 7046,
      "Ã©u": 7047,
      "isso": 7048,
      "deira": 7049,
      "Ġfp": 7050,
      "publ": 7051,
      "docs": 7052,
      "ividade": 7053,
      "Ġapplication": 7054,
      "Ã³lica": 7055,
      "Ġvelocidade": 7056,
      "Session": 7057,
      "bucket": 7058,
      "ĠRoma": 7059,
      "csv": 7060,
      "neros": 7061,
      "Ġquil": 7062,
      "Ġessen": 7063,
      "ĠpresenÃ§a": 7064,
      "MAX": 7065,
      "Ġprec": 7066,
      "Ġesposa": 7067,
      "Ġproto": 7068,
      "ignore": 7069,
      "counter": 7070,
      "ANG": 7071,
      "Ġnomes": 7072,
      "Ġnessa": 7073,
      "roy": 7074,
      "ĠÃ³r": 7075,
      "ĠLI": 7076,
      "Ġgot": 7077,
      "WS": 7078,
      "ĠAustr": 7079,
      "semble": 7080,
      "ĠforÃ§as": 7081,
      "Ġusers": 7082,
      "Ġqueue": 7083,
      "Ġjogadores": 7084,
      "Ġmedia": 7085,
      "ĠlÃŃder": 7086,
      "Ġconserv": 7087,
      "omb": 7088,
      "Ġsk": 7089,
      "commands": 7090,
      "xico": 7091,
      "gin": 7092,
      "iou": 7093,
      "Ġpsic": 7094,
      "Ġexplor": 7095,
      "Ġagrad": 7096,
      "extension": 7097,
      "Ġparal": 7098,
      "itual": 7099,
      "bum": 7100,
      "grade": 7101,
      "ĠSc": 7102,
      "Ġcima": 7103,
      "endswith": 7104,
      "Ġapl": 7105,
      "BUG": 7106,
      "ĠHom": 7107,
      "melho": 7108,
      "Ġlanc": 7109,
      "Ġtratamento": 7110,
      "Ġencode": 7111,
      "Ġ()": 7112,
      "menu": 7113,
      "Ġfn": 7114,
      "Ġpermite": 7115,
      "parts": 7116,
      "Ġbelo": 7117,
      "ERS": 7118,
      "Ġju": 7119,
      "Be": 7120,
      ">',": 7121,
      "idental": 7122,
      "Ġarea": 7123,
      "resses": 7124,
      "Ġfeed": 7125,
      "Ġheight": 7126,
      "Ġmomentos": 7127,
      "heiros": 7128,
      "Ġmemory": 7129,
      "ĠCrist": 7130,
      "dele": 7131,
      "ÃŃmp": 7132,
      "Ġtradicional": 7133,
      "Ġnasceu": 7134,
      "Ġouro": 7135,
      "Ġtalvez": 7136,
      "route": 7137,
      "ĠMÃ©": 7138,
      "Loc": 7139,
      "Open": 7140,
      "rtype": 7141,
      "ovi": 7142,
      "Ġ(-": 7143,
      "sparse": 7144,
      "Ġrela": 7145,
      "images": 7146,
      "sleep": 7147,
      "Ġ'{": 7148,
      "ĠTime": 7149,
      "(%": 7150,
      "Ġreserv": 7151,
      "ĠLuÃŃs": 7152,
      "Ġpolicy": 7153,
      "rota": 7154,
      "ĠEstende": 7155,
      "Ġjan": 7156,
      "ĠtÃ£o": 7157,
      "Ġlou": 7158,
      "ĠMiss": 7159,
      "ĠDoc": 7160,
      "Ġentender": 7161,
      "ĠDA": 7162,
      "orden": 7163,
      "todo": 7164,
      "Ġrapid": 7165,
      "Ġcompute": 7166,
      "ĠMax": 7167,
      "Art": 7168,
      "Ġpud": 7169,
      "Ġadmin": 7170,
      "Ġcerteza": 7171,
      "pick": 7172,
      "umo": 7173,
      "Ġresposta": 7174,
      "ĠcientÃŃf": 7175,
      "utros": 7176,
      "Ġvig": 7177,
      "Ġpossuem": 7178,
      "zz": 7179,
      "inv": 7180,
      "choices": 7181,
      "Ġdram": 7182,
      "Ġdt": 7183,
      "Ġclasse": 7184,
      "alpha": 7185,
      "Ġrepr": 7186,
      "Ġpresid": 7187,
      "rypt": 7188,
      "ĠserviÃ§o": 7189,
      "Ġrole": 7190,
      "virt": 7191,
      "Ġsuperf": 7192,
      "Ġpytest": 7193,
      "Ġescritor": 7194,
      "Ġsetting": 7195,
      "Ġresultados": 7196,
      "Ġsobrev": 7197,
      "Ġvalores": 7198,
      "formation": 7199,
      "ĠindivÃŃdu": 7200,
      "Ġcha": 7201,
      "ingo": 7202,
      "wal": 7203,
      "ĠStates": 7204,
      "ĠGeral": 7205,
      "Ġsimplesmente": 7206,
      "holder": 7207,
      "DateTimeField": 7208,
      "Ġutilizado": 7209,
      "ĠNotImplementedError": 7210,
      "Ġbackend": 7211,
      "Ġfala": 7212,
      "rando": 7213,
      "Ġfotos": 7214,
      "rat": 7215,
      "regex": 7216,
      "Ġdado": 7217,
      "Ã¢ndia": 7218,
      "Ġbuf": 7219,
      "Ġcele": 7220,
      "Ġupdated": 7221,
      "Ġdepartamento": 7222,
      "defined": 7223,
      "leo": 7224,
      "Ġemoc": 7225,
      "gregate": 7226,
      "dump": 7227,
      "Ġoperator": 7228,
      "Ġallowed": 7229,
      "after": 7230,
      "Ġexperiment": 7231,
      "Ġlic": 7232,
      "Alg": 7233,
      "Ġmetade": 7234,
      "Ġvaria": 7235,
      "########################################################################": 7236,
      "secret": 7237,
      "png": 7238,
      "private": 7239,
      "Ġproperties": 7240,
      "ativamente": 7241,
      "ark": 7242,
      "rir": 7243,
      "require": 7244,
      "Ġhumana": 7245,
      "OFTWARE": 7246,
      "Ġviagem": 7247,
      "ventory": 7248,
      "ĠMock": 7249,
      "Ġrealizar": 7250,
      "intern": 7251,
      "Can": 7252,
      "ryp": 7253,
      "Ġtransport": 7254,
      "Cre": 7255,
      "assign": 7256,
      "ĠBahia": 7257,
      "}}": 7258,
      "Ġminhas": 7259,
      "Ġcfg": 7260,
      "ough": 7261,
      "available": 7262,
      "Ġdefaults": 7263,
      "Ġterras": 7264,
      "Ġfiz": 7265,
      "Ġdomin": 7266,
      "teiro": 7267,
      "ĠIM": 7268,
      "amount": 7269,
      "Ġchanges": 7270,
      "Ġescreveu": 7271,
      "uso": 7272,
      "Ġabandon": 7273,
      "Ġbis": 7274,
      "Ġdesaf": 7275,
      "TypeError": 7276,
      "Ġpasse": 7277,
      "Ġlinguagem": 7278,
      "assertAll": 7279,
      "roz": 7280,
      "Ġrepo": 7281,
      "ef": 7282,
      "ĠDavid": 7283,
      "ardim": 7284,
      "Ġconsist": 7285,
      "boot": 7286,
      "Ġusada": 7287,
      "Ġlogin": 7288,
      "Ġesfor": 7289,
      "Ã©nero": 7290,
      "rael": 7291,
      "nected": 7292,
      "Ġvao": 7293,
      "Ġmorreu": 7294,
      "ĠNeg": 7295,
      "Ġpoints": 7296,
      "Template": 7297,
      "Ġaud": 7298,
      "Parameter": 7299,
      "ĠNas": 7300,
      "Ġcompart": 7301,
      "amma": 7302,
      "ĠHa": 7303,
      "rules": 7304,
      "azy": 7305,
      "Ġsala": 7306,
      "NA": 7307,
      "ster": 7308,
      "ird": 7309,
      "Tra": 7310,
      "urado": 7311,
      "ä¸": 7312,
      "ĠTa": 7313,
      "ORS": 7314,
      "apter": 7315,
      "unded": 7316,
      "resources": 7317,
      "once": 7318,
      "rays": 7319,
      "ĠRen": 7320,
      "Ġvoltou": 7321,
      "ĠgÃªnero": 7322,
      "Ġbre": 7323,
      "Ġrecuper": 7324,
      "ĠalemÃ£o": 7325,
      "curs": 7326,
      "Ġmao": 7327,
      "Ġcomand": 7328,
      "ĠgalÃ¡x": 7329,
      "Ġstandard": 7330,
      "sm": 7331,
      "ficiente": 7332,
      "iosa": 7333,
      "('--": 7334,
      "cons": 7335,
      "Ġinim": 7336,
      "Ã©ria": 7337,
      "Ġfug": 7338,
      "ummy": 7339,
      "ĠCD": 7340,
      "ya": 7341,
      "sched": 7342,
      "ĠWal": 7343,
      "ĠDa": 7344,
      "Ġ>>": 7345,
      "anhas": 7346,
      "MENT": 7347,
      "Ġprogress": 7348,
      "Ġcopyright": 7349,
      "ĠSegunda": 7350,
      "ĠÃģfrica": 7351,
      "staticmethod": 7352,
      "serve": 7353,
      "Ġ(%": 7354,
      "atado": 7355,
      "Cache": 7356,
      "optional": 7357,
      "urls": 7358,
      "Ġimagens": 7359,
      "Ġotherwise": 7360,
      "Ġdiff": 7361,
      "Ġestrel": 7362,
      "Ġdataset": 7363,
      "Ġul": 7364,
      "Ne": 7365,
      "Ġfizer": 7366,
      "berto": 7367,
      "ecem": 7368,
      "Ġpele": 7369,
      "ĠText": 7370,
      "dire": 7371,
      "verify": 7372,
      "ĠBat": 7373,
      "second": 7374,
      "Ġvamos": 7375,
      "done": 7376,
      "ĠQgs": 7377,
      "pkg": 7378,
      "ego": 7379,
      "Ġambient": 7380,
      "Ġposteriormente": 7381,
      "Ġcabeca": 7382,
      "Ġautomatic": 7383,
      "\\.": 7384,
      "Ġhuman": 7385,
      "rup": 7386,
      "Ġscope": 7387,
      "Ġlookup": 7388,
      "rp": 7389,
      "Ġvice": 7390,
      "Ġdesses": 7391,
      "Ãºss": 7392,
      "ixo": 7393,
      "Ġinstances": 7394,
      "Ġdando": 7395,
      "ĠMem": 7396,
      "Ġadquir": 7397,
      "ipo": 7398,
      "Ġadicion": 7399,
      "Ġhref": 7400,
      "Ġcategory": 7401,
      "Ġmudar": 7402,
      "------------": 7403,
      "special": 7404,
      "ĠÂ": 7405,
      "Ġfeatures": 7406,
      "Ġequal": 7407,
      "Ġneeded": 7408,
      "Queue": 7409,
      "quested": 7410,
      "Ġhow": 7411,
      "omos": 7412,
      "ĠFort": 7413,
      "fill": 7414,
      "ĠPen": 7415,
      "itando": 7416,
      "Mac": 7417,
      "light": 7418,
      "Container": 7419,
      "contents": 7420,
      "Ġwrap": 7421,
      "ĠGerais": 7422,
      "Ġdeixa": 7423,
      "Ġcabe": 7424,
      "ynamic": 7425,
      "Ġentity": 7426,
      "NOT": 7427,
      "ĠEUA": 7428,
      "tol": 7429,
      "istic": 7430,
      "Ġpur": 7431,
      "Ġassass": 7432,
      "irc": 7433,
      "ecido": 7434,
      "Ġfundo": 7435,
      "Ġopin": 7436,
      "Ġnd": 7437,
      "uate": 7438,
      ",\"": 7439,
      "ighb": 7440,
      "Ġvila": 7441,
      "ĠEns": 7442,
      "pers": 7443,
      "enceu": 7444,
      "ĠGre": 7445,
      "NotFound": 7446,
      "ĠlanÃ§amento": 7447,
      "ĠConst": 7448,
      "PY": 7449,
      "Mat": 7450,
      "Ġlegal": 7451,
      "Ġinterpret": 7452,
      "upper": 7453,
      "Ġclassific": 7454,
      "Exist": 7455,
      "ãĤ": 7456,
      "ĠaÃ§Ã£o": 7457,
      "temente": 7458,
      "ffect": 7459,
      "clam": 7460,
      "Layout": 7461,
      "Ġrows": 7462,
      "ients": 7463,
      "Ġestimada": 7464,
      "Ġ//": 7465,
      "Ġparts": 7466,
      "ĠFo": 7467,
      "reverse": 7468,
      "eq": 7469,
      "ĠcanÃ§Ã£o": 7470,
      "'\",": 7471,
      "Ġaltitude": 7472,
      "Ġcriancas": 7473,
      "ĠcaracterÃŃsticas": 7474,
      "OB": 7475,
      "provÃŃncia": 7476,
      "Ġmotor": 7477,
      "ĠJul": 7478,
      "components": 7479,
      "Thread": 7480,
      "click": 7481,
      "Program": 7482,
      "SQL": 7483,
      "Ġescolas": 7484,
      "defaults": 7485,
      "System": 7486,
      "SIZE": 7487,
      "asta": 7488,
      "ething": 7489,
      "Vol": 7490,
      "ories": 7491,
      "ĠSocial": 7492,
      "ĠHum": 7493,
      "ĠindÃºstr": 7494,
      "uted": 7495,
      "Ġleva": 7496,
      "Ġsignal": 7497,
      "ĠPop": 7498,
      "ĠNovo": 7499,
      "Ġcomem": 7500,
      "osofia": 7501,
      "ĠOc": 7502,
      "Ġaconteceu": 7503,
      "Ã¨": 7504,
      "Ġconnect": 7505,
      "aps": 7506,
      "Ġaprove": 7507,
      "states": 7508,
      "Ð°": 7509,
      "sertion": 7510,
      "CTION": 7511,
      "amba": 7512,
      "Ġpassando": 7513,
      "vari": 7514,
      "licas": 7515,
      "Init": 7516,
      "unid": 7517,
      "Ġmean": 7518,
      "ĠAttributeError": 7519,
      "ĠGroup": 7520,
      "iveira": 7521,
      "iramente": 7522,
      "Ġexit": 7523,
      "[^": 7524,
      "ĠSOFTWARE": 7525,
      "hing": 7526,
      "Ġlet": 7527,
      "Ġevents": 7528,
      "tn": 7529,
      "Ġinclusive": 7530,
      "Ġfonte": 7531,
      "verage": 7532,
      "Ġkeyword": 7533,
      "rm": 7534,
      "ĠJorge": 7535,
      "Ġliberdade": 7536,
      "Ġrelacao": 7537,
      "Ġdisk": 7538,
      "Ġdorm": 7539,
      "zinho": 7540,
      "VD": 7541,
      "edia": 7542,
      "Ġassociated": 7543,
      "Ġoeste": 7544,
      "Ġindices": 7545,
      "ĠAmaz": 7546,
      "ĠGon": 7547,
      "aaaa": 7548,
      "uf": 7549,
      "enham": 7550,
      "texto": 7551,
      "unha": 7552,
      "ĠHttp": 7553,
      "inx": 7554,
      "ibliografia": 7555,
      "FR": 7556,
      "subnet": 7557,
      "ijo": 7558,
      "iltin": 7559,
      "Ġtomar": 7560,
      "Ġobt": 7561,
      "note": 7562,
      "ibliote": 7563,
      "Ġenvol": 7564,
      "Ġlonge": 7565,
      "bi": 7566,
      "(\"/": 7567,
      "Ãºssia": 7568,
      "ifiers": 7569,
      "ington": 7570,
      "Ġescrita": 7571,
      "Cam": 7572,
      "Ġbaixa": 7573,
      "weights": 7574,
      "ÃŃstico": 7575,
      "ĠparticipaÃ§Ã£o": 7576,
      "Ġscale": 7577,
      "Ġocorreu": 7578,
      "ĠJer": 7579,
      "sequ": 7580,
      "ĠAug": 7581,
      "summary": 7582,
      "logging": 7583,
      "Ġforms": 7584,
      "Ġvizinh": 7585,
      "Ġwithin": 7586,
      "ĠLondres": 7587,
      "Ġcontato": 7588,
      "segu": 7589,
      "angle": 7590,
      "HOST": 7591,
      "ĠresponsÃ¡vel": 7592,
      "]):": 7593,
      "Ġrequire": 7594,
      "router": 7595,
      "ĠOf": 7596,
      "itaÃ§Ã£o": 7597,
      "Ġocorr": 7598,
      "quis": 7599,
      "ĠPan": 7600,
      "Ġlocalizado": 7601,
      "Ġartigo": 7602,
      "ĠCAP": 7603,
      "à¥": 7604,
      "(\"\\": 7605,
      "ĠColumn": 7606,
      "Ġmatches": 7607,
      "ĠVi": 7608,
      "Ġrua": 7609,
      "Ġsangue": 7610,
      "([])": 7611,
      "TEXT": 7612,
      "final": 7613,
      "Ġbranco": 7614,
      "Ġmostra": 7615,
      "Ġalma": 7616,
      "itou": 7617,
      "Resource": 7618,
      "CRE": 7619,
      "Dr": 7620,
      "Ġrealizada": 7621,
      "Ġ\"__": 7622,
      "ĠDel": 7623,
      "Ġintelig": 7624,
      "Ġpossa": 7625,
      "integer": 7626,
      "Ġlugares": 7627,
      "``.": 7628,
      "Ġfui": 7629,
      "ĠUN": 7630,
      "sentou": 7631,
      "Ġempreg": 7632,
      "helper": 7633,
      "Parse": 7634,
      "Ġfronteira": 7635,
      "Ġprogramas": 7636,
      "Cr": 7637,
      ",)": 7638,
      "Ġweights": 7639,
      "Ġactive": 7640,
      "Ġinterval": 7641,
      "ĠConselho": 7642,
      "Ġpartido": 7643,
      "ĠvitÃ³ria": 7644,
      "Ġconhecer": 7645,
      "Ter": 7646,
      "ĠespecÃŃf": 7647,
      "found": 7648,
      "ĠTec": 7649,
      "owner": 7650,
      ":\"": 7651,
      "Ġjulg": 7652,
      "emon": 7653,
      "database": 7654,
      "Ġplace": 7655,
      "Ġestas": 7656,
      "idor": 7657,
      "ĠCre": 7658,
      "Ġgosto": 7659,
      "Ġperiod": 7660,
      "[:-": 7661,
      "hex": 7662,
      "Ġideias": 7663,
      "ĠAbr": 7664,
      "ĠQUE": 7665,
      "ĠHistÃ³ria": 7666,
      "Ġcanal": 7667,
      "ĠBal": 7668,
      "Ã©rcio": 7669,
      "itado": 7670,
      "kes": 7671,
      "rappe": 7672,
      "Ġfabric": 7673,
      "ericanos": 7674,
      "ĠMen": 7675,
      "Ġredirect": 7676,
      "untos": 7677,
      "Lib": 7678,
      "where": 7679,
      "arge": 7680,
      "Ġsinal": 7681,
      "eio": 7682,
      "Ġsuger": 7683,
      "Ġtotalmente": 7684,
      "irou": 7685,
      "unch": 7686,
      "Ã¡dio": 7687,
      "ĠConf": 7688,
      "orial": 7689,
      "__.": 7690,
      "Ġante": 7691,
      "Ã©cia": 7692,
      "gio": 7693,
      "iÃ§a": 7694,
      "memory": 7695,
      "forms": 7696,
      "Close": 7697,
      "Ġdificil": 7698,
      "ĠCin": 7699,
      "Ġderiv": 7700,
      "ssl": 7701,
      "ĠLista": 7702,
      "sym": 7703,
      "mir": 7704,
      ")).": 7705,
      "icina": 7706,
      "company": 7707,
      "uk": 7708,
      "see": 7709,
      "Ġnotice": 7710,
      "Ġfilters": 7711,
      "Ġzona": 7712,
      "ĠJack": 7713,
      "Ġgroups": 7714,
      "ĠOri": 7715,
      "Ġdivision": 7716,
      "iguel": 7717,
      "Ġquestion": 7718,
      "ĠCatar": 7719,
      "Ġdescri": 7720,
      "Ġefeitos": 7721,
      "ĠProf": 7722,
      "Ġcomando": 7723,
      "Ġseconds": 7724,
      "ĠgÃ©nero": 7725,
      "Ġingles": 7726,
      "Random": 7727,
      "bsite": 7728,
      "SL": 7729,
      "ova": 7730,
      "eron": 7731,
      "ĠinfluÃªncia": 7732,
      "Ġblank": 7733,
      "Ġrelease": 7734,
      "Ġmapping": 7735,
      "Ġcard": 7736,
      "Ġacess": 7737,
      "month": 7738,
      "ĠclÃ¡ss": 7739,
      "aff": 7740,
      "IMIT": 7741,
      "Ġexpand": 7742,
      "ApÃ³s": 7743,
      "Ġfel": 7744,
      "Ġentrou": 7745,
      "Cap": 7746,
      "Ġparsed": 7747,
      "ureau": 7748,
      "Ġbad": 7749,
      "Ġtemperatura": 7750,
      "ĠMÃ©xico": 7751,
      "Ġadequ": 7752,
      "Act": 7753,
      "vador": 7754,
      "signal": 7755,
      "Ġrecom": 7756,
      "ĠdivisÃ£o": 7757,
      "endem": 7758,
      "Ġprodut": 7759,
      "uraÃ§Ã£o": 7760,
      "Ġcontrib": 7761,
      "SELECT": 7762,
      "Match": 7763,
      "Ġspecial": 7764,
      "Ġeleito": 7765,
      "ipv": 7766,
      "VERSION": 7767,
      "aba": 7768,
      "âĢĻ": 7769,
      "uiÃ§Ãµes": 7770,
      "ciou": 7771,
      "Ġconceito": 7772,
      "branch": 7773,
      "Flow": 7774,
      "cida": 7775,
      "Ġcolabor": 7776,
      "Ġplot": 7777,
      "ĠCÃ¢mara": 7778,
      "ĠISBN": 7779,
      "cpu": 7780,
      "Ġcen": 7781,
      "Su": 7782,
      "ĠCens": 7783,
      "Ġfat": 7784,
      "ĠJogos": 7785,
      "ĠComun": 7786,
      "Ġtransporte": 7787,
      "Ã³dio": 7788,
      "ÃŃd": 7789,
      "yes": 7790,
      "Ġprofile": 7791,
      "expand": 7792,
      "ĠĠĠĠĠĠĠĠĠĠĠĠĠĠĠĠĠĠĠĠĠĠĠĠĠĠĠĠĠĠĠĠĠĠĠĠĠĠĠĠĠ": 7793,
      "rong": 7794,
      "eda": 7795,
      "single": 7796,
      "Ġapoi": 7797,
      "ĠBom": 7798,
      "Ġpast": 7799,
      "Ġdiagrama": 7800,
      "Ġescolh": 7801,
      "Ġoito": 7802,
      "Ġinternet": 7803,
      "Ġjoin": 7804,
      "Ġinstrument": 7805,
      "ĠAndr": 7806,
      "%.": 7807,
      "Pat": 7808,
      "ĠMult": 7809,
      "chunk": 7810,
      "ĠBureau": 7811,
      "ester": 7812,
      "den": 7813,
      "ĠXML": 7814,
      "ĠFI": 7815,
      "ocia": 7816,
      "VENT": 7817,
      "endÃªncia": 7818,
      "ani": 7819,
      "ostas": 7820,
      "gia": 7821,
      "USE": 7822,
      "ĠvizinhanÃ§a": 7823,
      "Level": 7824,
      "Ġfrase": 7825,
      "utron": 7826,
      "Ġproxy": 7827,
      "Ã¡lise": 7828,
      "Red": 7829,
      "github": 7830,
      "ĠArgentina": 7831,
      "suffix": 7832,
      "antos": 7833,
      "Ġ\"_": 7834,
      "Sc": 7835,
      "antar": 7836,
      "ism": 7837,
      "Ġartistas": 7838,
      "ĠLou": 7839,
      "ĠInf": 7840,
      "sync": 7841,
      "testing": 7842,
      "ĠClub": 7843,
      "ĠNatal": 7844,
      "ables": 7845,
      "edor": 7846,
      "Ġuses": 7847,
      "kkkk": 7848,
      "park": 7849,
      "Ġanother": 7850,
      "Ġmilitares": 7851,
      "Ġtentar": 7852,
      "Ġpint": 7853,
      "Ġmente": 7854,
      "Ġextrem": 7855,
      "Ġconsiderada": 7856,
      "ĠWeb": 7857,
      "ctype": 7858,
      "Ġcriada": 7859,
      "Ġawait": 7860,
      "gether": 7861,
      "}'.": 7862,
      "arei": 7863,
      "/'": 7864,
      "Ġcharacters": 7865,
      "pis": 7866,
      "Ġdeveria": 7867,
      "payload": 7868,
      "Core": 7869,
      "Ġvisual": 7870,
      "ĠError": 7871,
      "ĠField": 7872,
      "Ġapply": 7873,
      "Ġrights": 7874,
      "ĠOptional": 7875,
      "Update": 7876,
      "Ġconseguir": 7877,
      "ĠLin": 7878,
      "Policy": 7879,
      "Prov": 7880,
      "ĠFund": 7881,
      "ĠMuseu": 7882,
      "ny": 7883,
      "Esp": 7884,
      "Ġterceira": 7885,
      "enco": 7886,
      "turas": 7887,
      "ĠSam": 7888,
      "Ġperda": 7889,
      "herit": 7890,
      "WE": 7891,
      "IVE": 7892,
      "Ġface": 7893,
      "ĠAntÃ´nio": 7894,
      "Ġimedi": 7895,
      "Ġmudou": 7896,
      "Ġpena": 7897,
      "Ġment": 7898,
      "ixed": 7899,
      "Ġtup": 7900,
      "Ġestamos": 7901,
      "Ġcultural": 7902,
      "Ġprojetos": 7903,
      "support": 7904,
      "Ġequival": 7905,
      "ĠirmÃ£o": 7906,
      "Host": 7907,
      "Ġbro": 7908,
      "Layer": 7909,
      "hass": 7910,
      "Ġtorno": 7911,
      "ĠManuel": 7912,
      "Cor": 7913,
      "Sp": 7914,
      "Ġtaxa": 7915,
      "ĠWITH": 7916,
      "outputs": 7917,
      "ĠEntao": 7918,
      "sal": 7919,
      "issÃ£o": 7920,
      "uation": 7921,
      "imax": 7922,
      "mag": 7923,
      "tro": 7924,
      "Ġarmas": 7925,
      "zes": 7926,
      "Ġevitar": 7927,
      "ilho": 7928,
      "olesc": 7929,
      "Ġlag": 7930,
      "Ġpergunt": 7931,
      "ĠSMALL": 7932,
      "ĠUr": 7933,
      "ĠOliveira": 7934,
      "NetDevice": 7935,
      "Ġselected": 7936,
      "Ao": 7937,
      "Pref": 7938,
      "Ġusage": 7939,
      "antil": 7940,
      "Ġwx": 7941,
      "Wh": 7942,
      "ĠcondiÃ§Ãµes": 7943,
      "dataset": 7944,
      "trace": 7945,
      "vector": 7946,
      "Ġbasic": 7947,
      "ĠAinda": 7948,
      "Ġviu": 7949,
      ":`.": 7950,
      "You": 7951,
      "assertNot": 7952,
      "Ġcore": 7953,
      "ĠChrist": 7954,
      "Ġnovel": 7955,
      "ifer": 7956,
      "Ð¾": 7957,
      "Ġfur": 7958,
      "ansible": 7959,
      "ĠorganizaÃ§Ã£o": 7960,
      "Ġprova": 7961,
      "Ġado": 7962,
      "ARY": 7963,
      "Ġhouve": 7964,
      "person": 7965,
      "ĠModel": 7966,
      "Ġuns": 7967,
      "Ġproblem": 7968,
      "Ġec": 7969,
      "BR": 7970,
      "period": 7971,
      "ĠCensus": 7972,
      "depth": 7973,
      "apply": 7974,
      "ĠseguranÃ§a": 7975,
      "proc": 7976,
      "ĠQuer": 7977,
      "ixe": 7978,
      "Ġtoo": 7979,
      "pg": 7980,
      "Ġstderr": 7981,
      "Ġincluem": 7982,
      "ĠavanÃ§": 7983,
      "internet": 7984,
      "esses": 7985,
      "Ġfogo": 7986,
      "learn": 7987,
      "idar": 7988,
      "Ġencer": 7989,
      "bert": 7990,
      "Ġhead": 7991,
      "Util": 7992,
      "cesso": 7993,
      "Ġmetal": 7994,
      "mor": 7995,
      "Ġaccept": 7996,
      "Wrapper": 7997,
      "iante": 7998,
      "details": 7999,
      "FE": 8000,
      "Ġdefesa": 8001,
      "pet": 8002,
      "ĠGrupo": 8003,
      "Ġcantora": 8004,
      "Ġtx": 8005,
      "MIN": 8006,
      "ĠcÃ©l": 8007,
      ".\",": 8008,
      "Ġhomenagem": 8009,
      "Ã¤": 8010,
      "framework": 8011,
      "reference": 8012,
      "ĠJSON": 8013,
      "Ġstats": 8014,
      "Ġindent": 8015,
      "Ġhigh": 8016,
      ".%": 8017,
      "ĠSecret": 8018,
      "Ġtes": 8019,
      "Ġartes": 8020,
      "literal": 8021,
      "orado": 8022,
      "ffff": 8023,
      "Ġtare": 8024,
      "Ġalias": 8025,
      "internal": 8026,
      "////////////////////////////////": 8027,
      "Ġconstitu": 8028,
      "uco": 8029,
      "ĠCentral": 8030,
      "Ġmodules": 8031,
      ">\"": 8032,
      "ĠValid": 8033,
      "SA": 8034,
      "ĠestÃº": 8035,
      "Ġaleg": 8036,
      "Ġesport": 8037,
      "ĠFac": 8038,
      "ĠVen": 8039,
      "tokens": 8040,
      "Ġproprio": 8041,
      "izaÃ§Ãµes": 8042,
      "\"'": 8043,
      "ĠPresidente": 8044,
      "Ġira": 8045,
      "ĠPet": 8046,
      "Ġfos": 8047,
      "ÃŃlio": 8048,
      "terns": 8049,
      "attach": 8050,
      "missing": 8051,
      "hip": 8052,
      "Ġlonga": 8053,
      "mapping": 8054,
      "Ġentries": 8055,
      "elif": 8056,
      "hr": 8057,
      "Types": 8058,
      "estim": 8059,
      "Ġteatro": 8060,
      "ĠAlem": 8061,
      "ĠPos": 8062,
      "Ġbel": 8063,
      "My": 8064,
      "Depois": 8065,
      "inou": 8066,
      "Rece": 8067,
      "Gu": 8068,
      "Ġadditional": 8069,
      "Ġestados": 8070,
      "Serial": 8071,
      "Ġ\"\",": 8072,
      "ĠmunicÃŃpios": 8073,
      "sn": 8074,
      "(('": 8075,
      "Ġvert": 8076,
      "Bibliografia": 8077,
      "Ġcarreg": 8078,
      "ĠCONTR": 8079,
      "Ġlinhas": 8080,
      "VID": 8081,
      "Ġrapidamente": 8082,
      "contin": 8083,
      "Ġverify": 8084,
      "ulta": 8085,
      "ĠRet": 8086,
      "Python": 8087,
      "sk": 8088,
      "ĠexÃ©rcito": 8089,
      "Ġunidades": 8090,
      "FN": 8091,
      "Ġpresentes": 8092,
      "ĠImper": 8093,
      "Length": 8094,
      "ongo": 8095,
      "px": 8096,
      "browse": 8097,
      "Ġnote": 8098,
      "Names": 8099,
      "Order": 8100,
      "Ġtriste": 8101,
      "ending": 8102,
      "ĠHor": 8103,
      "Ġafirma": 8104,
      "pn": 8105,
      ",),": 8106,
      "ĠFin": 8107,
      "ĠCOP": 8108,
      "Ġtiveram": 8109,
      "entries": 8110,
      "onomia": 8111,
      "Ġindividual": 8112,
      "Ġdefine": 8113,
      "pair": 8114,
      "Ġbatalha": 8115,
      "izam": 8116,
      "king": 8117,
      "failed": 8118,
      "ĠpÃºb": 8119,
      "Ġwere": 8120,
      "arguments": 8121,
      "Ġefet": 8122,
      "ĠLat": 8123,
      "ĠHenrique": 8124,
      "java": 8125,
      "library": 8126,
      "CLUD": 8127,
      "Ġforca": 8128,
      "Ġestat": 8129,
      "Ġunidade": 8130,
      "ole": 8131,
      "Ġjuntos": 8132,
      "ITAL": 8133,
      "arted": 8134,
      "Ġrc": 8135,
      "ous": 8136,
      "uba": 8137,
      "gy": 8138,
      "Ġitaliana": 8139,
      "itoral": 8140,
      "Ġrisco": 8141,
      "ĠRequest": 8142,
      "eras": 8143,
      "Ġacus": 8144,
      "tributions": 8145,
      "currency": 8146,
      "Mon": 8147,
      "Def": 8148,
      "Control": 8149,
      "Ġpreserv": 8150,
      "edes": 8151,
      "Ġfundamental": 8152,
      "seed": 8153,
      "ĠMichael": 8154,
      "endas": 8155,
      "ĠrÃ¡p": 8156,
      "ĠAlegre": 8157,
      "Mod": 8158,
      "ĠBon": 8159,
      "Ã³digo": 8160,
      "ĠSm": 8161,
      "super": 8162,
      "Ġimpr": 8163,
      "ÃŃcie": 8164,
      "blem": 8165,
      "Ġtokens": 8166,
      "ĠcrianÃ§as": 8167,
      "Ġvocal": 8168,
      "Ãªnio": 8169,
      "Ġdelas": 8170,
      "+'": 8171,
      "price": 8172,
      "Ġtelef": 8173,
      "incip": 8174,
      "ĠCO": 8175,
      "une": 8176,
      "ĠProv": 8177,
      "Ġrepet": 8178,
      "Ġamea": 8179,
      "GB": 8180,
      "Ġcust": 8181,
      "zinha": 8182,
      "reshape": 8183,
      "Ġbeb": 8184,
      "Ġneeds": 8185,
      "seconds": 8186,
      "ifies": 8187,
      "adoras": 8188,
      "(\"\"\"": 8189,
      "Ġdessas": 8190,
      "Ġescrito": 8191,
      "snapshot": 8192,
      "Ġ])": 8193,
      "Helper": 8194,
      "Ġcolocar": 8195,
      "Ġoutputs": 8196,
      "Ġescolha": 8197,
      "RefCount": 8198,
      "Admin": 8199,
      "ĠVit": 8200,
      "aturas": 8201,
      "VE": 8202,
      "SY": 8203,
      "INFO": 8204,
      "ÃŃncipe": 8205,
      "extract": 8206,
      ",))": 8207,
      "Ġcontrato": 8208,
      "Ġataque": 8209,
      "SimpleRefCount": 8210,
      "Exp": 8211,
      "Ġenable": 8212,
      "Ã¡gina": 8213,
      "Ġgols": 8214,
      "anner": 8215,
      "rpc": 8216,
      "usÃ£o": 8217,
      "Ġinstru": 8218,
      "Ġimplementation": 8219,
      "_%": 8220,
      "ĠRock": 8221,
      "Sim": 8222,
      "uck": 8223,
      "Ġsw": 8224,
      "prote": 8225,
      "urou": 8226,
      "Ġwin": 8227,
      "lem": 8228,
      "ĠJames": 8229,
      "duct": 8230,
      "Ġcast": 8231,
      "ĠprÃ©": 8232,
      "Ġinspir": 8233,
      "BooleanField": 8234,
      "Ġpayload": 8235,
      "Ġeconom": 8236,
      "hared": 8237,
      "Ġkernel": 8238,
      "Options": 8239,
      "ĠHoje": 8240,
      "original": 8241,
      "kernel": 8242,
      "ĠprÃ³ximo": 8243,
      "ĠMov": 8244,
      "redirect": 8245,
      "ĉĉčĊ": 8246,
      "Ġfen": 8247,
      "Ġconforme": 8248,
      "Ã¡r": 8249,
      "ĠRei": 8250,
      "ouro": 8251,
      "Ġevol": 8252,
      "................": 8253,
      "Ġvale": 8254,
      "Ġcuja": 8255,
      "Ġremoved": 8256,
      "Ġcallable": 8257,
      "Ġlock": 8258,
      "sqrt": 8259,
      "alg": 8260,
      "dent": 8261,
      "Op": 8262,
      "Ġhome": 8263,
      "ĠTele": 8264,
      "hello": 8265,
      "Ġstorage": 8266,
      "Ġprimary": 8267,
      "sy": 8268,
      "ĠRede": 8269,
      "asure": 8270,
      "unidense": 8271,
      "hosts": 8272,
      "ĠSou": 8273,
      "Ġcai": 8274,
      "XXXX": 8275,
      "plugins": 8276,
      "amily": 8277,
      "ĠÐ": 8278,
      "ĠMiguel": 8279,
      "gi": 8280,
      "units": 8281,
      "fmt": 8282,
      "Ġcomigo": 8283,
      "Ġsemanas": 8284,
      "parameter": 8285,
      "culos": 8286,
      "Ġreason": 8287,
      "Ġmany": 8288,
      "Ġfrequentemente": 8289,
      "ÃŃa": 8290,
      "Ġfeminino": 8291,
      "TA": 8292,
      "Ġestrange": 8293,
      "slug": 8294,
      "ĠRobert": 8295,
      "Ġescrav": 8296,
      "adio": 8297,
      "Ġsofr": 8298,
      "Cons": 8299,
      "Ġensure": 8300,
      "Ġpequenos": 8301,
      "tick": 8302,
      "ĠAv": 8303,
      "Ġtivesse": 8304,
      "Ġedif": 8305,
      "Ġpequenas": 8306,
      "fre": 8307,
      "kind": 8308,
      "fera": 8309,
      "ĠJac": 8310,
      "Ġtransmit": 8311,
      "abspath": 8312,
      "Durante": 8313,
      "nb": 8314,
      "ĠEstr": 8315,
      "Ġalpha": 8316,
      "Ġfinalmente": 8317,
      "byte": 8318,
      "Ġdesenvolver": 8319,
      "tdc": 8320,
      "Ġveget": 8321,
      "icar": 8322,
      "Ġassunto": 8323,
      "ĠBill": 8324,
      "_)": 8325,
      "Exec": 8326,
      "undle": 8327,
      "avar": 8328,
      "ogn": 8329,
      "ĠPode": 8330,
      "ĠimportÃ¢ncia": 8331,
      "{'": 8332,
      "Fail": 8333,
      "Ġacontece": 8334,
      "ropol": 8335,
      "ĠprincÃŃp": 8336,
      "Ġmilho": 8337,
      "Ġartista": 8338,
      "AttributeValue": 8339,
      "sia": 8340,
      "Ġreserved": 8341,
      "scar": 8342,
      "ĠAlguns": 8343,
      "Ġpassagem": 8344,
      "Ġmaos": 8345,
      "acial": 8346,
      "Ġbox": 8347,
      "ĠMark": 8348,
      "Nos": 8349,
      "Ġcomunic": 8350,
      "ĠCidade": 8351,
      "Ġduv": 8352,
      "CLUDING": 8353,
      "{%": 8354,
      "tei": 8355,
      "ĠRich": 8356,
      "bus": 8357,
      "Ġacho": 8358,
      "Ġmatem": 8359,
      "TIME": 8360,
      "Ġkind": 8361,
      "Ġbrasileiros": 8362,
      "witter": 8363,
      "apes": 8364,
      "ismos": 8365,
      "Ġpeso": 8366,
      "endar": 8367,
      "Ġspace": 8368,
      "ĠNumber": 8369,
      "Deleter": 8370,
      "hou": 8371,
      "ĠIV": 8372,
      "Ġenorm": 8373,
      "ĠDef": 8374,
      "Ġprovoc": 8375,
      "pdf": 8376,
      "ĠBol": 8377,
      "Ġcult": 8378,
      "wa": 8379,
      "Ġweight": 8380,
      "Ġfaixa": 8381,
      "ĠlanÃ§ou": 8382,
      "Ġcomponent": 8383,
      "itores": 8384,
      "Ġxrange": 8385,
      "ĠSystem": 8386,
      "Ftdc": 8387,
      "links": 8388,
      "Ġjuntamente": 8389,
      "sto": 8390,
      "Ġouvir": 8391,
      "component": 8392,
      "some": 8393,
      "Record": 8394,
      "../": 8395,
      "/>.": 8396,
      "override": 8397,
      "Ġcujo": 8398,
      "ĠCL": 8399,
      "Ġcomplete": 8400,
      "Project": 8401,
      "Ġreais": 8402,
      "Ġfit": 8403,
      "ĠAD": 8404,
      "ĠAz": 8405,
      "Ġpertencente": 8406,
      "Ġsuffix": 8407,
      "Ġjapon": 8408,
      "Ġkw": 8409,
      "avo": 8410,
      "icol": 8411,
      "uldades": 8412,
      "Ġbaix": 8413,
      "Ġleste": 8414,
      "ĠMarc": 8415,
      "ĠVale": 8416,
      "ĠSerra": 8417,
      "Ġpublicado": 8418,
      "Ġporem": 8419,
      "Ġencontro": 8420,
      "Ġexpr": 8421,
      "Ġacontec": 8422,
      "ĠCOPY": 8423,
      "Ġexclude": 8424,
      "ĠnÂº": 8425,
      "Ġparticipou": 8426,
      "Ġatac": 8427,
      "Ġacontecer": 8428,
      "opes": 8429,
      "Ġcommit": 8430,
      "Ġafet": 8431,
      "ĠsituaÃ§Ã£o": 8432,
      "Ġmotivo": 8433,
      "feitura": 8434,
      "dn": 8435,
      "Ġdeput": 8436,
      "Ġmesmos": 8437,
      "Ġinclui": 8438,
      "Ġantigos": 8439,
      "Ġideal": 8440,
      "ĠCourse": 8441,
      "ĠFestival": 8442,
      "Ġparticipar": 8443,
      "('<": 8444,
      "Ġsignature": 8445,
      "ĠLes": 8446,
      "Ġdestaque": 8447,
      "Ġbol": 8448,
      "Ġcollections": 8449,
      "ĠSP": 8450,
      "Ġflores": 8451,
      "uding": 8452,
      "iago": 8453,
      "expect": 8454,
      "JE": 8455,
      "region": 8456,
      "missÃ£o": 8457,
      "adura": 8458,
      "urs": 8459,
      "Ġabord": 8460,
      "hei": 8461,
      "Ġaparece": 8462,
      "Ġinvestig": 8463,
      "Ġrem": 8464,
      "eroporto": 8465,
      "configuration": 8466,
      "Ġcondado": 8467,
      "Ġpropria": 8468,
      "ĠRegiÃ£o": 8469,
      "Ġconstr": 8470,
      "idge": 8471,
      "Ġvc": 8472,
      "ĠDin": 8473,
      "Ġiss": 8474,
      "Ġtol": 8475,
      "ĠCalif": 8476,
      "HERE": 8477,
      "rev": 8478,
      "Ġuuid": 8479,
      "pas": 8480,
      "ĠPAR": 8481,
      "enames": 8482,
      "ĠVis": 8483,
      "Ġrelev": 8484,
      "Ġsparse": 8485,
      "Off": 8486,
      "Ġmember": 8487,
      "Biografia": 8488,
      "onso": 8489,
      "Ġrecor": 8490,
      "factor": 8491,
      "ĠOuro": 8492,
      "ĠAcademia": 8493,
      "~~~~~~~~": 8494,
      "ĠPrÃªmio": 8495,
      "Ġ-=": 8496,
      "GER": 8497,
      "ĠMir": 8498,
      "ĠTim": 8499,
      "Ġdescoberta": 8500,
      ":'": 8501,
      "Ġ{})": 8502,
      "Sign": 8503,
      "Ġexplicit": 8504,
      "Ġtimestamp": 8505,
      "Unit": 8506,
      "Ġcarta": 8507,
      "aster": 8508,
      "ĠVe": 8509,
      "rei": 8510,
      "Ġmonitor": 8511,
      "Ġcumpr": 8512,
      "Ġcontinua": 8513,
      "Ġcomputador": 8514,
      "ilhos": 8515,
      "tran": 8516,
      "Ġnormalmente": 8517,
      "ĠTH": 8518,
      "Ġchega": 8519,
      "Ġput": 8520,
      "ĠEmbora": 8521,
      "\\\"": 8522,
      "ĠRua": 8523,
      "Ġexceptions": 8524,
      "Ġdid": 8525,
      "ĠprÃ¡tica": 8526,
      "inger": 8527,
      "Ġpul": 8528,
      "Ġcac": 8529,
      "cios": 8530,
      "fol": 8531,
      "adÃ¡": 8532,
      "pp": 8533,
      "DU": 8534,
      "atabase": 8535,
      "icultura": 8536,
      "sens": 8537,
      "ipy": 8538,
      "Ġyear": 8539,
      "rÃ³": 8540,
      "Ġprovavelmente": 8541,
      "Argument": 8542,
      "']))": 8543,
      "}\".": 8544,
      "exclude": 8545,
      "Ġru": 8546,
      "Ġrules": 8547,
      ")(": 8548,
      "ationError": 8549,
      "series": 8550,
      "idao": 8551,
      "Ġprofissionais": 8552,
      "MD": 8553,
      "Script": 8554,
      "Ġinstalled": 8555,
      "Ġsustent": 8556,
      "lor": 8557,
      "Ġreprodu": 8558,
      "Ġatra": 8559,
      "Ġang": 8560,
      "Ġmorrer": 8561,
      "ategy": 8562,
      "ATTR": 8563,
      "share": 8564,
      "iteritems": 8565,
      "Ġ....": 8566,
      "ĠSin": 8567,
      "ĠBern": 8568,
      "ĠserÃ¡": 8569,
      "plicit": 8570,
      "ĠFel": 8571,
      "Range": 8572,
      "Ġoutfile": 8573,
      "Ġmatching": 8574,
      "esia": 8575,
      "ads": 8576,
      "ĠGab": 8577,
      "ACE": 8578,
      "Ġmaster": 8579,
      "Ġpet": 8580,
      "Ġcerta": 8581,
      "ĠFrank": 8582,
      "Ġgas": 8583,
      "Ġ))": 8584,
      "Ġmeans": 8585,
      "ĠAmor": 8586,
      "Ġatrib": 8587,
      "Ġdouble": 8588,
      "Ġdizendo": 8589,
      "Ġderrot": 8590,
      "ĠBR": 8591,
      "ivar": 8592,
      "retanto": 8593,
      "enha": 8594,
      "ĠKar": 8595,
      "complex": 8596,
      "Ġoverride": 8597,
      "Ġ[-": 8598,
      "Ġaprender": 8599,
      "Ġclima": 8600,
      "Application": 8601,
      "Ġmanager": 8602,
      "ĠCall": 8603,
      "Ġprovider": 8604,
      "Target": 8605,
      "ĠPossui": 8606,
      "Ġph": 8607,
      "Ġjeito": 8608,
      "ĠCAPITAL": 8609,
      "ĠEdu": 8610,
      "rl": 8611,
      "onal": 8612,
      "ĠNE": 8613,
      "ĠMer": 8614,
      "translate": 8615,
      "effect": 8616,
      "Ġupload": 8617,
      "ĠBa": 8618,
      "Ġfizeram": 8619,
      "Ġobjeto": 8620,
      "ĠBrit": 8621,
      "lap": 8622,
      "/{": 8623,
      "asco": 8624,
      "ĠBur": 8625,
      "Ġcriou": 8626,
      "udos": 8627,
      "ENS": 8628,
      "ascii": 8629,
      "ĠAna": 8630,
      "apps": 8631,
      "ĠOTH": 8632,
      "Ġpermission": 8633,
      "Ġcasas": 8634,
      "ĠEnc": 8635,
      "Ġuri": 8636,
      "inner": 8637,
      "ĠeducaÃ§Ã£o": 8638,
      "ĠTrabal": 8639,
      "zas": 8640,
      "lar": 8641,
      "SÃ£o": 8642,
      "Ġreplace": 8643,
      "layers": 8644,
      "********************************": 8645,
      "Ġfetch": 8646,
      "Ġio": 8647,
      "Ġsuficiente": 8648,
      "Ġobjetos": 8649,
      "Ġbits": 8650,
      "Ġemit": 8651,
      "Ġdiretamente": 8652,
      "ĠDireito": 8653,
      "Top": 8654,
      "Ġtool": 8655,
      "etes": 8656,
      "||": 8657,
      "istÃ©rio": 8658,
      "Ġboolean": 8659,
      "Ġbutton": 8660,
      "HTML": 8661,
      "tables": 8662,
      "La": 8663,
      "Ġbele": 8664,
      "dc": 8665,
      "impl": 8666,
      "ĠClass": 8667,
      "Ġespaco": 8668,
      "dst": 8669,
      "before": 8670,
      "ucion": 8671,
      "Plugin": 8672,
      "gest": 8673,
      "Ġmicro": 8674,
      "Ġvarias": 8675,
      "CD": 8676,
      "ĠVariable": 8677,
      "ĠLiga": 8678,
      "Ġpropriedade": 8679,
      "%).": 8680,
      "Ġazul": 8681,
      "Ġbest": 8682,
      "aged": 8683,
      "Ġclar": 8684,
      "Prefix": 8685,
      "Ġcalls": 8686,
      "Stack": 8687,
      "velop": 8688,
      "Ġcompletamente": 8689,
      "Ġgram": 8690,
      "wall": 8691,
      "assem": 8692,
      "([\"": 8693,
      "Ġnomeado": 8694,
      "Ġcontar": 8695,
      "ĠOrder": 8696,
      "ilos": 8697,
      "Ġstill": 8698,
      "Ðµ": 8699,
      "Ġ~": 8700,
      "player": 8701,
      "Ġlegisl": 8702,
      "Ġsubject": 8703,
      "ĠDele": 8704,
      "Ġfolder": 8705,
      "Ġguard": 8706,
      "VICE": 8707,
      "Ġenabled": 8708,
      "ynch": 8709,
      "ĠParque": 8710,
      "Ġcantor": 8711,
      "Ġadapt": 8712,
      "Ġ-------": 8713,
      "ĠEg": 8714,
      "Ġdst": 8715,
      "basename": 8716,
      "Ġatom": 8717,
      "Ġadolesc": 8718,
      "ĠJun": 8719,
      "ĠSQL": 8720,
      "ĠGa": 8721,
      "Ġdriver": 8722,
      "ĠĠĠĠĠĠĠĠĠĠĠĠĠĠĠĠĠĠĠĠĠĠĠĠĠĠĠĠĠĠĠĠĠĠĠĠĠĠĠĠĠĠ": 8723,
      "times": 8724,
      "aveis": 8725,
      "iores": 8726,
      "Ġexecute": 8727,
      "ĠAlf": 8728,
      "ague": 8729,
      "ysis": 8730,
      "Ġbranch": 8731,
      "detail": 8732,
      "Ġguer": 8733,
      "Ġcaval": 8734,
      "ading": 8735,
      "ĠAntÃ³nio": 8736,
      "=-": 8737,
      ":``": 8738,
      "Float": 8739,
      "ĠQuem": 8740,
      "Ġisol": 8741,
      "dl": 8742,
      "Ġagu": 8743,
      "Ġfo": 8744,
      "Ġdesejo": 8745,
      "Ġpublico": 8746,
      "icip": 8747,
      "wisted": 8748,
      "\";": 8749,
      "Ġcontinuar": 8750,
      "Ġestreia": 8751,
      "creto": 8752,
      "Ġoptim": 8753,
      "Ġintroduz": 8754,
      "Ġshutil": 8755,
      "ffero": 8756,
      "ien": 8757,
      "Ġaquilo": 8758,
      "Ġcomuns": 8759,
      "Ġbrinc": 8760,
      "havior": 8761,
      "ĠAffero": 8762,
      "ĠquÃŃm": 8763,
      "Ġdaquele": 8764,
      "Ġitaliano": 8765,
      "Ġpensamento": 8766,
      "atten": 8767,
      "Ã¡ticos": 8768,
      "external": 8769,
      "blog": 8770,
      "Ġclear": 8771,
      "Ġsomos": 8772,
      "ĠMilitar": 8773,
      "ball": 8774,
      "game": 8775,
      "eram": 8776,
      "Ġatencao": 8777,
      "partition": 8778,
      "cÃ§Ã£o": 8779,
      "Ã±": 8780,
      "ĠGra": 8781,
      "Ġusa": 8782,
      "IRECT": 8783,
      "Ġday": 8784,
      "Impl": 8785,
      "DES": 8786,
      "complete": 8787,
      "Ġgenerator": 8788,
      "Ġcrianca": 8789,
      "DEBUG": 8790,
      "Voce": 8791,
      "':'": 8792,
      "ĠNor": 8793,
      "rank": 8794,
      "Este": 8795,
      "facts": 8796,
      "Ġexpans": 8797,
      "ĠestaÃ§Ã£o": 8798,
      "Ġvals": 8799,
      "ibus": 8800,
      "Person": 8801,
      "Select": 8802,
      "Store": 8803,
      "days": 8804,
      "Ġsint": 8805,
      "quina": 8806,
      "cached": 8807,
      "Ġbucket": 8808,
      "EMPL": 8809,
      "emas": 8810,
      "olÃ³gico": 8811,
      "posed": 8812,
      "emit": 8813,
      "adcast": 8814,
      "bon": 8815,
      "Ġterm": 8816,
      "ĠRun": 8817,
      "Ġworks": 8818,
      "Ġesquerda": 8819,
      "()]": 8820,
      "Ġappend": 8821,
      "Ġmostrar": 8822,
      "Ġbind": 8823,
      "umul": 8824,
      "Ġapaix": 8825,
      "celho": 8826,
      "Ġmasculino": 8827,
      "Ġvarios": 8828,
      "ÃŃda": 8829,
      "arange": 8830,
      "imp": 8831,
      "ÃŃrito": 8832,
      "->": 8833,
      "Ġpassaram": 8834,
      "Ġinternal": 8835,
      "ĠCatarina": 8836,
      "chemy": 8837,
      "ecendo": 8838,
      "stub": 8839,
      "Ġvector": 8840,
      "urada": 8841,
      "ovos": 8842,
      "ptr": 8843,
      "Ġfontes": 8844,
      "')]": 8845,
      "Ġdecidiu": 8846,
      "encion": 8847,
      "eds": 8848,
      "ĠEstad": 8849,
      "ĠAL": 8850,
      "Ġfique": 8851,
      "Ġproced": 8852,
      "edge": 8853,
      "conv": 8854,
      "Ġtm": 8855,
      "Ġrequires": 8856,
      "ott": 8857,
      "define": 8858,
      "ĠWo": 8859,
      "Ġvelho": 8860,
      "='',": 8861,
      "Ġmodelos": 8862,
      "Metadata": 8863,
      "App": 8864,
      "Ġrv": 8865,
      "fname": 8866,
      "break": 8867,
      "pus": 8868,
      "Ġcm": 8869,
      "Ġregion": 8870,
      "otas": 8871,
      "bas": 8872,
      "ĠPere": 8873,
      "Ġarran": 8874,
      "ĠpÃºblica": 8875,
      "ĠSalvador": 8876,
      "Ġcv": 8877,
      "ISE": 8878,
      "()):": 8879,
      "FLAGS": 8880,
      "Ġtake": 8881,
      "updated": 8882,
      "orth": 8883,
      "Ġcomprom": 8884,
      "iados": 8885,
      "ĠON": 8886,
      "ANS": 8887,
      "Ġconsegue": 8888,
      "uxo": 8889,
      "progress": 8890,
      "rowser": 8891,
      "freq": 8892,
      "enerp": 8893,
      "ĠpadrÃ£o": 8894,
      "Ġâ": 8895,
      "decl": 8896,
      "ĠVo": 8897,
      "flush": 8898,
      "Ġanunci": 8899,
      "mc": 8900,
      "Ġvide": 8901,
      "Ġchildren": 8902,
      "Ġmateriais": 8903,
      "KK": 8904,
      "yl": 8905,
      "tagon": 8906,
      "Ġprodutor": 8907,
      "Ġmovimentos": 8908,
      "yt": 8909,
      "eting": 8910,
      "Enum": 8911,
      "Ġanimal": 8912,
      "atus": 8913,
      "ĠmÃºsicas": 8914,
      "REQU": 8915,
      "ĠOne": 8916,
      "Ġrecon": 8917,
      "arte": 8918,
      "ontal": 8919,
      "ements": 8920,
      "Ġhabil": 8921,
      "Ġdeixando": 8922,
      "Ã³is": 8923,
      "Ġcresc": 8924,
      "Ġespanhol": 8925,
      "\"}),": 8926,
      "inja": 8927,
      "cipl": 8928,
      "ordeste": 8929,
      "Ġnumero": 8930,
      "ayment": 8931,
      "Ġelabor": 8932,
      "Empty": 8933,
      "untimeError": 8934,
      "=\"\"": 8935,
      "ensao": 8936,
      "Ġrus": 8937,
      "ĠTodos": 8938,
      "urar": 8939,
      "Ġhard": 8940,
      "Ġimped": 8941,
      "SV": 8942,
      "Ġcomportamento": 8943,
      "('.": 8944,
      "Ġreset": 8945,
      "getLogger": 8946,
      "Ġuntil": 8947,
      "Ġeg": 8948,
      "Ġalegria": 8949,
      "Ġloss": 8950,
      "Ġidentifier": 8951,
      "ĠGoverno": 8952,
      "topic": 8953,
      "ĠGil": 8954,
      "ĠEM": 8955,
      "Ġestadual": 8956,
      "Ġprotest": 8957,
      "Search": 8958,
      "LETE": 8959,
      "Ġfazia": 8960,
      "ceria": 8961,
      "ensis": 8962,
      "ĠDistr": 8963,
      "Proxy": 8964,
      "itespace": 8965,
      "DATE": 8966,
      "Ġformato": 8967,
      "ÃŃlias": 8968,
      "members": 8969,
      "Ġterminou": 8970,
      "ĠÃ¢": 8971,
      "Dialog": 8972,
      "Ġcalc": 8973,
      "Ġcompanhia": 8974,
      "ĠJÃº": 8975,
      "atÃ©g": 8976,
      "Trace": 8977,
      "vida": 8978,
      "Ġbelow": 8979,
      "Ġacord": 8980,
      "Ġinver": 8981,
      "Ġjun": 8982,
      "dtypes": 8983,
      "ĠEurope": 8984,
      "ĠLuiz": 8985,
      "ĠTensor": 8986,
      "amÃŃlia": 8987,
      "cost": 8988,
      "ĠAqu": 8989,
      "history": 8990,
      "Ġtesting": 8991,
      "EMA": 8992,
      "Ġside": 8993,
      "ĠSER": 8994,
      "Ãºcle": 8995,
      "ĠlÃ¡": 8996,
      "Pa": 8997,
      "nova": 8998,
      "Ġsimilar": 8999,
      "angel": 9000,
      "ĠSom": 9001,
      "Ġromance": 9002,
      "Ġblo": 9003,
      "ÃŃdeo": 9004,
      "Ġmut": 9005,
      "sembleia": 9006,
      "DC": 9007,
      "cla": 9008,
      "FG": 9009,
      "calls": 9010,
      "Ġpress": 9011,
      "uva": 9012,
      "Ġleast": 9013,
      "dictions": 9014,
      "EP": 9015,
      "Ã³rm": 9016,
      "Ġapresentar": 9017,
      "enharia": 9018,
      "ached": 9019,
      "ctories": 9020,
      "Ġplaneta": 9021,
      "glext": 9022,
      "dif": 9023,
      "Work": 9024,
      "Ġincom": 9025,
      "inition": 9026,
      "power": 9027,
      "packages": 9028,
      "bunal": 9029,
      "Ġcoro": 9030,
      "ĠEnquanto": 9031,
      "ĠPR": 9032,
      "Ġcontro": 9033,
      "browser": 9034,
      "Pe": 9035,
      "Ġ{},": 9036,
      "selected": 9037,
      "boolean": 9038,
      "Ġduring": 9039,
      "Ġreplac": 9040,
      "uÃŃa": 9041,
      "Ġoportunidade": 9042,
      "apt": 9043,
      "plain": 9044,
      "Ġocorrer": 9045,
      "ĠUSE": 9046,
      "ĠParan": 9047,
      "Ġcorresponding": 9048,
      "Ġtyp": 9049,
      "Ġiniciou": 9050,
      "Ġganhar": 9051,
      "Ġcidad": 9052,
      "iosos": 9053,
      "}.": 9054,
      "signature": 9055,
      "Ġabsol": 9056,
      "ĠAntonio": 9057,
      "Ġler": 9058,
      "cf": 9059,
      "olÃ³gica": 9060,
      "shared": 9061,
      "senvolv": 9062,
      "elements": 9063,
      "Ġusados": 9064,
      "ione": 9065,
      "Ġpasso": 9066,
      "Ġalimentos": 9067,
      "Ġseq": 9068,
      "ays": 9069,
      "ĠcampeÃ£o": 9070,
      "Ġinformacoes": 9071,
      "Ġshows": 9072,
      "Ġevid": 9073,
      "Ġmagn": 9074,
      "Ġthose": 9075,
      "apped": 9076,
      "Ġabertura": 9077,
      "ĠÃŃnd": 9078,
      "cn": 9079,
      "osas": 9080,
      "Ġcampeonato": 9081,
      "Ġsabia": 9082,
      "Ġgovernador": 9083,
      "ĠLima": 9084,
      "plan": 9085,
      "Ġato": 9086,
      "âĢĿ,": 9087,
      "Ġproximo": 9088,
      "AUTH": 9089,
      "Dom": 9090,
      "lel": 9091,
      "drop": 9092,
      "Ġplanej": 9093,
      "Ġ----------------------------------------------------------------": 9094,
      "Ġperfe": 9095,
      "Ġterr": 9096,
      "ĠmÃªs": 9097,
      "Ġmante": 9098,
      "layout": 9099,
      "ĠbritÃ¢nico": 9100,
      "Ġ<<": 9101,
      "Ġ_,": 9102,
      "Ġtropas": 9103,
      "MAIN": 9104,
      "Ġsupports": 9105,
      "Ġpossibilidade": 9106,
      "ĠMos": 9107,
      "Ġbur": 9108,
      "controller": 9109,
      "uit": 9110,
      "Ġobter": 9111,
      "ĠIndex": 9112,
      "tasks": 9113,
      "Ġpropag": 9114,
      "push": 9115,
      "itmo": 9116,
      "Http": 9117,
      "ssh": 9118,
      "ueses": 9119,
      "Ġstructure": 9120,
      "ĠEspir": 9121,
      "Ġleite": 9122,
      "Ġproposta": 9123,
      "Ġprocessos": 9124,
      "dm": 9125,
      "ĠOTHER": 9126,
      "AF": 9127,
      "Ġsep": 9128,
      "Ġpior": 9129,
      "Ret": 9130,
      "ĠWil": 9131,
      "using": 9132,
      "ÃŃmbol": 9133,
      "Ġfeitas": 9134,
      "constraint": 9135,
      "cli": 9136,
      "Ġcorte": 9137,
      "Ġcomposta": 9138,
      "Ġboca": 9139,
      "ieve": 9140,
      "ĠPaulista": 9141,
      "Ġcontexto": 9142,
      "tenant": 9143,
      "Ġinser": 9144,
      "IED": 9145,
      "otal": 9146,
      "prob": 9147,
      "Document": 9148,
      "omo": 9149,
      "burgo": 9150,
      "estore": 9151,
      "pag": 9152,
      "identity": 9153,
      "Ġlar": 9154,
      "ucional": 9155,
      "Ġraised": 9156,
      "Ġdigital": 9157,
      "DA": 9158,
      "supported": 9159,
      "##############################################################################": 9160,
      "Ġincluded": 9161,
      "Ġreino": 9162,
      "Ġzone": 9163,
      "choice": 9164,
      "ificada": 9165,
      "PA": 9166,
      "ulk": 9167,
      "iodo": 9168,
      "Ġcena": 9169,
      "Mask": 9170,
      "ĠindÃºstria": 9171,
      "FIL": 9172,
      "cover": 9173,
      "Ġestadunidense": 9174,
      "ĠTeatro": 9175,
      "ĠÃºltimos": 9176,
      "tros": 9177,
      "Ġbeleza": 9178,
      "wrapper": 9179,
      "accept": 9180,
      "begin": 9181,
      "tela": 9182,
      "ĠAT": 9183,
      "Ġbaseado": 9184,
      "Ġencontrada": 9185,
      "quare": 9186,
      "OPT": 9187,
      "identifier": 9188,
      "``,": 9189,
      "Ġdemocr": 9190,
      "ĠCri": 9191,
      "rosoft": 9192,
      "ĠDaniel": 9193,
      "transaction": 9194,
      "Ġvirt": 9195,
      "ĠRic": 9196,
      "Ġmarido": 9197,
      "hidden": 9198,
      "generator": 9199,
      "Ġliteratura": 9200,
      "\\'": 9201,
      "Ġprofund": 9202,
      "duration": 9203,
      "RIGHT": 9204,
      "ĠIsrael": 9205,
      "ĠFal": 9206,
      "ĠDesde": 9207,
      "ĠÃįndia": 9208,
      "hares": 9209,
      "Ġcomposto": 9210,
      "Ġsegundos": 9211,
      "ĠCer": 9212,
      "crement": 9213,
      "selection": 9214,
      "absent": 9215,
      "Ġconhecidos": 9216,
      "ĠJulho": 9217,
      "ĠRN": 9218,
      "Ġnaquele": 9219,
      "Ġleve": 9220,
      "Ġrosto": 9221,
      "ĠmÃ¡x": 9222,
      "Ġaspect": 9223,
      "Inst": 9224,
      "arias": 9225,
      "alth": 9226,
      "xff": 9227,
      "ĠAmar": 9228,
      "Ġpossibil": 9229,
      "ĠJÃ¡": 9230,
      "ĠExÃ©rcito": 9231,
      "So": 9232,
      "Copy": 9233,
      "Gr": 9234,
      "ĠestÃºdio": 9235,
      "ĠAra": 9236,
      "mic": 9237,
      "Ġgrid": 9238,
      "IBUT": 9239,
      "Ġtraceback": 9240,
      "returns": 9241,
      "Ġsexual": 9242,
      "pages": 9243,
      "ĠIO": 9244,
      "Ð¸": 9245,
      "Ġscore": 9246,
      "Ġdeleted": 9247,
      "hado": 9248,
      "Ġvaz": 9249,
      "Ġepoca": 9250,
      "ĠcompetiÃ§Ã£o": 9251,
      "ĠStringIO": 9252,
      "Hist": 9253,
      "adre": 9254,
      "elem": 9255,
      "WORD": 9256,
      "__()": 9257,
      "Ġindependente": 9258,
      "Ø§": 9259,
      "licate": 9260,
      "ĠCastelo": 9261,
      "Ġ'$": 9262,
      "draw": 9263,
      ".[": 9264,
      "qty": 9265,
      "modified": 9266,
      "unknown": 9267,
      "iblioteca": 9268,
      "cop": 9269,
      "asy": 9270,
      "Delete": 9271,
      "onha": 9272,
      "ORE": 9273,
      "Ġavoid": 9274,
      "dp": 9275,
      "ĠsuperfÃŃcie": 9276,
      "Ġperdeu": 9277,
      "Ġferram": 9278,
      "sock": 9279,
      "Ġproib": 9280,
      "Ġsetor": 9281,
      "Ġcurr": 9282,
      "jeto": 9283,
      "indic": 9284,
      "hot": 9285,
      "Ġcompleta": 9286,
      "Ġmerge": 9287,
      "Ġjogar": 9288,
      "ftime": 9289,
      "riend": 9290,
      "ĠPereira": 9291,
      "gens": 9292,
      "graf": 9293,
      "ĠAM": 9294,
      "Ġverde": 9295,
      "ĠĠĠĠĠĠĠĠĠĠĠĠĠĠĠĠĠĠĠĠĠĠĠĠĠĠĠĠĠĠĠĠĠĠĠĠĠĠĠĠĠĠĠĠ": 9296,
      "REG": 9297,
      "suite": 9298,
      "Ġseres": 9299,
      "azer": 9300,
      "Ã´s": 9301,
      "Ġcontribu": 9302,
      "Ġreform": 9303,
      "Ġanteriores": 9304,
      "Ã©dio": 9305,
      "ederaÃ§Ã£o": 9306,
      "extensions": 9307,
      "Cas": 9308,
      "prior": 9309,
      "hem": 9310,
      "ĠRÃºssia": 9311,
      ".\\": 9312,
      "prom": 9313,
      "Ġsonho": 9314,
      "Ġconden": 9315,
      "Ġjorn": 9316,
      "backup": 9317,
      "acc": 9318,
      "Ġok": 9319,
      "Ġcarne": 9320,
      "sid": 9321,
      "ĠAir": 9322,
      "Ġhass": 9323,
      "running": 9324,
      "big": 9325,
      "ĠCul": 9326,
      "services": 9327,
      "sources": 9328,
      "Ġsing": 9329,
      "outube": 9330,
      "ĠfunÃ§Ãµes": 9331,
      "meth": 9332,
      "Menu": 9333,
      "perm": 9334,
      "HEAD": 9335,
      "Ġlinks": 9336,
      "slice": 9337,
      "Ġexce": 9338,
      "Ġafirmou": 9339,
      "ĠCR": 9340,
      "Ġteu": 9341,
      "ropolit": 9342,
      "Ġfa": 9343,
      "Ġruas": 9344,
      "dicao": 9345,
      "utas": 9346,
      "ĠAgosto": 9347,
      "mann": 9348,
      "argo": 9349,
      "Over": 9350,
      "Ġmenu": 9351,
      "pur": 9352,
      "Ġformar": 9353,
      "ĠcrÃŃtica": 9354,
      "Ġsemelhante": 9355,
      "============": 9356,
      "Ġequil": 9357,
      "Ġverdadeiro": 9358,
      "Ġpkg": 9359,
      "ĠFilho": 9360,
      "alf": 9361,
      "Ġshell": 9362,
      "tural": 9363,
      "VALID": 9364,
      "two": 9365,
      "ĠcomÃ©rcio": 9366,
      "Ġoperations": 9367,
      "abe": 9368,
      "Ġmadeira": 9369,
      "bits": 9370,
      "eng": 9371,
      "ĠnecessÃ¡rio": 9372,
      "ampa": 9373,
      "yd": 9374,
      "INGS": 9375,
      "SSL": 9376,
      "Ġutilizada": 9377,
      "lots": 9378,
      "Ġprotagon": 9379,
      "servers": 9380,
      "Ġsinto": 9381,
      "Ġfelicidade": 9382,
      "Ã´nicos": 9383,
      "registry": 9384,
      "Ġorden": 9385,
      "permission": 9386,
      "Ġbegin": 9387,
      "Ġcaminh": 9388,
      "!\"": 9389,
      "unpack": 9390,
      "Ã³m": 9391,
      "Ġcord": 9392,
      "Ġsm": 9393,
      "team": 9394,
      "Ġgaro": 9395,
      "================================================================": 9396,
      "ĠConstit": 9397,
      "fire": 9398,
      "Ġwrapper": 9399,
      "Ã³rico": 9400,
      "Ġsched": 9401,
      "Ġvotos": 9402,
      "irem": 9403,
      "Ġsituacao": 9404,
      "Fund": 9405,
      "Ġsubstitu": 9406,
      "Author": 9407,
      "Ġdial": 9408,
      "ĠExt": 9409,
      "Ġimages": 9410,
      "nail": 9411,
      "Ġsorris": 9412,
      "Sem": 9413,
      "Ġfederal": 9414,
      "Ġpotencial": 9415,
      "Font": 9416,
      "sgi": 9417,
      "Ġimperador": 9418,
      "Ġincorpor": 9419,
      "ĠOrgan": 9420,
      "Ġacaba": 9421,
      "Ġcomprimento": 9422,
      "strings": 9423,
      "Ġarmaz": 9424,
      "Ġ***": 9425,
      "Unless": 9426,
      "Ġdelta": 9427,
      "ĠPortuguesa": 9428,
      "Ġles": 9429,
      "ily": 9430,
      "cols": 9431,
      "Ġredes": 9432,
      "Multi": 9433,
      "Sup": 9434,
      "Ġbug": 9435,
      "__.__": 9436,
      "Ġultimo": 9437,
      "ĠGoi": 9438,
      "anga": 9439,
      "Ġsympy": 9440,
      "ĠKe": 9441,
      "SG": 9442,
      "limits": 9443,
      "esp": 9444,
      "Ġinicialmente": 9445,
      "Ġtempfile": 9446,
      "ampl": 9447,
      "ĠAbril": 9448,
      "Ġimposs": 9449,
      "crit": 9450,
      "Ġcrise": 9451,
      ")-": 9452,
      "itions": 9453,
      "ĠNode": 9454,
[...]
